{
  "Ġdolphins": 28793,
  "ASS": 16977,
  "MON": 30594,
  "ĠShaun": 28684,
  "ĠBund": 12904,
  "Ġdubbed": 13664,
  "ĠJupiter": 19475,
  "Ġdelayed": 11764,
  "Ġcybersecurity": 23456,
  "ators": 1945,
  "Ġfundamental": 6519,
  "Ġsmear": 28964,
  "Ġ135": 23443,
  "Ġtime": 589,
  "Ġbikes": 14377,
  "ĠWarsaw": 27862,
  "mat": 8583,
  "created": 25503,
  "Ġboyfriend": 13384,
  "Ġstd": 22639,
  "Ġstatistical": 13217,
  "hattan": 10487,
  "ogan": 6879,
  "len": 13212,
  "Ġvers": 1673,
  "Tunes": 13985,
  "Gall": 27684,
  "Ġkilograms": 30649,
  "Ġ1940": 13949,
  "Sty": 27489,
  "ĠCrist": 20704,
  "win": 4284,
  "Ġbeauty": 9044,
  "rod": 16307,
  "Ġsometimes": 3246,
  "ĠReports": 19708,
  "Ġfriendships": 29484,
  "Ġsatire": 28719,
  "Ġshutter": 30498,
  "Ġanswer": 3190,
  "ÄŁ": 20737,
  "Ġportal": 20005,
  "Ġconcerned": 4594,
  "Ġexpenses": 10599,
  "Ġsorry": 8502,
  "driven": 13505,
  "ĠGov": 8273,
  "osh": 3871,
  "Ġheightened": 21455,
  "ieval": 14555,
  "Ġinvite": 13328,
  "Ġrelatives": 11729,
  "ican": 6280,
  "'ve": 1814,
  "ĠCarl": 6998,
  "Ġsellers": 21474,
  "ĠMurd": 16292,
  "ĠOregon": 7628,
  "ĠDiablo": 30943,
  "air": 956,
  "ĠHuman": 5846,
  "Ġshaped": 13673,
  "Ġ24": 2440,
  "ĠCreate": 17598,
  "Ġimpulse": 25051,
  "Ġlottery": 18864,
  "Ġpressed": 12462,
  "Ġexplicitly": 11045,
  "nels": 17660,
  "lig": 4782,
  "Ġfreight": 27420,
  "itus": 20139,
  "ĠCarson": 13489,
  "brow": 30908,
  "107": 23102,
  "Close": 29377,
  "Ġundec": 24114,
  "ĠStr": 6301,
  "Ġtied": 7283,
  "ĠLine": 9052,
  "Ġterminology": 27397,
  "opher": 7901,
  "Ġnutrients": 21223,
  "ĠElection": 12482,
  "ĠGreen": 3520,
  "ĠApache": 22742,
  "Ġsouls": 18536,
  "Ġanthem": 18937,
  "ĠBetween": 14102,
  "Ġadequate": 13516,
  "Ġfeared": 13319,
  "lane": 25287,
  "\"),": 18664,
  "aney": 18442,
  "($": 21021,
  "Ġorganized": 7357,
  "rehensible": 30066,
  "Ġcere": 6340,
  "Ġatheist": 18894,
  "ished": 1258,
  "Ġnet": 1812,
  "ĠVeter": 14177,
  "team": 14791,
  "amina": 30106,
  "Ġadditions": 18364,
  "ĠChristie": 12842,
  "Ġweapons": 3720,
  "igel": 18770,
  "Ġpropaganda": 9441,
  "'.": 8451,
  "Ġbeaches": 21222,
  "ĠSah": 20483,
  "ĠRAF": 30595,
  "ĠDriver": 24664,
  "etheless": 10951,
  "ĠLy": 8176,
  "ait": 4596,
  "Ġp": 236,
  "Ġmemorandum": 31086,
  "ecut": 8235,
  "ĠContinental": 29072,
  "Ġdiving": 20661,
  "30": 1805,
  "ĠCompanies": 22043,
  "Ġhum": 1237,
  "Ġbreasts": 22494,
  "Ġflipped": 23925,
  "rendered": 23317,
  "ĠJac": 7979,
  "ĠZimbabwe": 20899,
  "ĠFilms": 25327,
  "ĠDiaz": 21940,
  "Ġgenerations": 9310,
  "Sur": 14733,
  "balance": 20322,
  "Ġjunk": 16869,
  "High": 13787,
  "Ġuneasy": 31533,
  "Ċ": 176,
  "('": 12140,
  "ĠMars": 7588,
  "Ġcaves": 29628,
  "times": 20698,
  "ĠDalton": 28051,
  "Ġconqu": 19884,
  "think": 12536,
  "ĠChampion": 17587,
  "incial": 11476,
  "apter": 5583,
  "imposed": 30354,
  "Ġliberated": 29646,
  "Ġeighteen": 31032,
  "Ġbeneficial": 13382,
  "Access": 24478,
  "Ġspokes": 3120,
  "ĠSurv": 15866,
  "Ġconveniently": 28720,
  "ĠSan": 2747,
  "Ġpervasive": 23986,
  "ritz": 26131,
  "ÑĨ": 28552,
  "Ġcompensation": 10107,
  "ĠKorea": 4216,
  "Ġpixel": 19441,
  "Ġcrafted": 18696,
  "ĠiTunes": 14667,
  "Ġcelebrating": 14351,
  "Screen": 31876,
  "planes": 20760,
  "release": 22906,
  "inders": 29049,
  "Ġbarriers": 12823,
  "izabeth": 9159,
  "ĠProtocol": 24895,
  "Each": 11356,
  "ĠWikipedia": 12953,
  "ĠPalin": 14236,
  "Ġkindly": 27883,
  "ĠTPP": 18825,
  "Ġunconventional": 27007,
  "Ġabolition": 25505,
  "Naz": 30277,
  "ĠSeriously": 26311,
  "Ġprovoked": 24349,
  "ĠVox": 29784,
  "izza": 10068,
  "Such": 14145,
  "Ġreflection": 13762,
  "ĠChrist": 1802,
  "pts": 14399,
  "Ġwhis": 11655,
  "pper": 3294,
  "ĠGE": 22336,
  "Ġbump": 11402,
  "Ġsketch": 16570,
  "Ġceremonies": 23977,
  "Ġprolifer": 17877,
  "Ġmaintained": 9352,
  "Ġlungs": 21747,
  "piece": 12249,
  "Ġprofit": 6988,
  "Ġgraduated": 15340,
  "Ġenters": 16234,
  "RR": 29218,
  "About": 8452,
  "solete": 22557,
  "Ġpositioned": 17531,
  "ĠUKIP": 27621,
  "Ġ198": 2240,
  "Ġscrutiny": 11635,
  "Ġinvariably": 28424,
  "Ġmorph": 17593,
  "ĠTweet": 19444,
  "ĠNim": 29580,
  "cap": 10668,
  "Ġori": 23532,
  "feed": 14984,
  "Ġtrophy": 18003,
  "Ġchatting": 28725,
  "ĠOrthodox": 15157,
  "Ġeighth": 14196,
  "oyal": 4606,
  "break": 9299,
  "Ġpathways": 22475,
  "ĠOccupy": 15932,
  "ĠEffect": 16551,
  "ĠGi": 7405,
  "Ġcandidate": 3613,
  "Ġbloss": 26633,
  "ĠFilip": 19610,
  "ĠMO": 13757,
  "dou": 24152,
  "Ġrenewable": 11510,
  "span": 19417,
  "ĠWriter": 24747,
  "ĠCollection": 17245,
  "iven": 1417,
  "trans": 9194,
  "Ġ1941": 20150,
  "Ġairplanes": 29394,
  "Ġtrend": 4520,
  "Ġcolleg": 11176,
  "lando": 9835,
  "Ġbaseball": 7265,
  "ĠLenin": 22331,
  "Don": 3727,
  "def": 6047,
  "Ġauth": 5911,
  "Ġnationwide": 11015,
  "Ġwhereby": 22580,
  "usch": 24034,
  "iece": 17021,
  "Ġemail": 2839,
  "Ġwhatsoever": 15750,
  "Ġadept": 31572,
  "Ġdealing": 6734,
  "Ġunpre": 9358,
  "ĠField": 8019,
  "ETA": 22347,
  "ĠFoods": 20702,
  "Ġseparat": 18152,
  "ifi": 24798,
  "Most": 6129,
  "Investigators": 25813,
  "ĠDocker": 22361,
  "Ġarguably": 12088,
  "Ġ190": 24659,
  "patient": 28334,
  "ĪĴ": 7115,
  "ĠJeffrey": 16877,
  "ainer": 16278,
  "ĠInstagram": 9722,
  "ables": 3342,
  "Ġpony": 24768,
  "Ġstaring": 17445,
  "sp": 3429,
  "ximately": 24029,
  "Ġcre": 1079,
  "iona": 31633,
  "Ġdirt": 13500,
  "Ġmush": 15392,
  "osexual": 7853,
  "ĠColombia": 17505,
  "ĠFish": 15343,
  "Ġpatent": 10879,
  "hetical": 18323,
  "orsi": 21225,
  "forcement": 12988,
  "Ġsided": 30049,
  "ĠTrafford": 30251,
  "ATH": 18212,
  "Ġshots": 6182,
  "utes": 1857,
  "Ġpresum": 8485,
  "ricia": 25026,
  "Ġsaga": 21991,
  "naire": 26958,
  "Ġentered": 6221,
  "Ġfeedback": 7319,
  "Ġenacted": 16461,
  "berry": 9264,
  "ĠWere": 17391,
  "ĠOtherwise": 17420,
  "ĠThus": 7813,
  "Ġcode": 2486,
  "Ġlogo": 10398,
  "Ġreuse": 28560,
  "ĠSus": 9017,
  "Ġfre": 2857,
  "ĠCad": 20010,
  "Ġfinancial": 2723,
  "Ġdrib": 28745,
  "Ġdefin": 2733,
  "ï¼Į": 26769,
  "Ġhappier": 20317,
  "Ġsch": 5066,
  "Ġinjury": 4772,
  "thro": 30332,
  "Ġcent": 1093,
  "Ġcru": 4170,
  "bon": 3901,
  "ĠFinland": 15924,
  "Ġnoteworthy": 25321,
  "icon": 4778,
  "Ġprimitive": 20877,
  "Ġassistant": 7354,
  "input": 25326,
  "such": 11218,
  "Ġworthless": 27199,
  "Ġre": 259,
  "cend": 13577,
  "Ġgunman": 19566,
  "ĠBurning": 28318,
  "Ġguide": 6540,
  "DS": 6646,
  "Ġoxy": 10864,
  "Tur": 14694,
  "ĠWinn": 15505,
  "ĠJu": 13036,
  "Ġdiscern": 22924,
  "ĠHey": 16200,
  "ĠSaint": 11925,
  "Ġmaintains": 14318,
  "Vict": 20976,
  "Ġdelt": 31816,
  "Ġmobil": 14041,
  "Äĩ": 14937,
  "Ġsad": 5967,
  "ational": 752,
  "ĠSav": 10195,
  "axies": 20491,
  "Ġpetro": 15444,
  "Ġhard": 1224,
  "ĠWear": 26266,
  "irection": 19981,
  "ĠPLAY": 31681,
  "ĠMarine": 10479,
  "Ġfossils": 27527,
  "yard": 8074,
  "uns": 14027,
  "Ġridic": 7844,
  "er": 220,
  "ima": 7379,
  "Ġuseless": 14933,
  "Ġbarrel": 8832,
  "Ġelectronics": 14859,
  "Ġ7": 1017,
  "Ġrapp": 23093,
  "Start": 13313,
  "Ġmans": 22563,
  "ĠTh": 513,
  "Ġguru": 29818,
  "static": 20739,
  "ase": 582,
  "ĠArabia": 8171,
  "ĠBronze": 30949,
  "280": 28398,
  "av": 580,
  "ĠEdinburgh": 19696,
  "astrous": 15804,
  "Ġborne": 28642,
  "ĠEcho": 22828,
  "ĠOct": 2399,
  "Great": 15246,
  "gor": 6663,
  "Ġwaiver": 25573,
  "ĠAshe": 30342,
  "ĠAtmosp": 30335,
  "Ġengineers": 9947,
  "Ġsixteen": 28250,
  "ular": 1054,
  "uckland": 24005,
  "uri": 11594,
  "ĠRapt": 20255,
  "Ġreb": 3067,
  "Ġgave": 2738,
  "Ġhomicides": 28754,
  "ĠEm": 2665,
  "Ġclergy": 23415,
  "Ġstatistics": 8225,
  "Ġsampling": 18592,
  "ned": 1154,
  "Ġseating": 24175,
  "Ġtimetable": 31389,
  "Ġplaque": 29933,
  "ĠCam": 7040,
  "33": 3973,
  "ĠNoel": 29524,
  "Ġmovie": 3254,
  "acial": 21281,
  "zene": 27836,
  "Ġut": 3502,
  "Les": 31440,
  "Ġdi": 2234,
  "ĠFraz": 29067,
  "Ġconf": 937,
  "aneous": 14510,
  "Ġcompiling": 31881,
  "Ġcel": 19132,
  "Ġproportional": 27054,
  "ĠCom": 1040,
  "way": 965,
  "Ġthat": 273,
  "Ġtempor": 10012,
  "ĠThames": 31670,
  "ĠSolid": 19407,
  "Ġbrought": 2964,
  "Ġthrill": 24594,
  "ĠThis": 814,
  "Ġheld": 2455,
  "Ġdelays": 13885,
  "Ġcute": 14941,
  "Ġ1946": 22919,
  "bucks": 18198,
  "ĠCore": 8395,
  "ĠPerry": 10788,
  "recy": 16794,
  "ĠKR": 29770,
  "Ġran": 4426,
  "Ġinteract": 5090,
  "Ġtruck": 6995,
  "blem": 13954,
  "utterstock": 23116,
  "ĠTB": 25025,
  "Ġblamed": 10953,
  "istent": 7714,
  "ĠLyon": 28735,
  "Ġrobber": 25455,
  "Having": 12853,
  "25": 2461,
  "onic": 7230,
  "ĠGoal": 26137,
  "Ġshock": 7802,
  "ancies": 15952,
  "Ġhills": 19176,
  "DP": 5560,
  "Ġ1994": 8915,
  "aq": 16682,
  "manship": 23757,
  "Ġfills": 23152,
  "prom": 14249,
  "Ġtoilet": 15445,
  "Ġmicrowave": 27956,
  "Ġbusinessman": 15155,
  "Ġpasses": 7459,
  "Ġoverse": 7530,
  "Putin": 28763,
  "Ġanalysis": 3627,
  "Ġmasterpiece": 27080,
  "Ġfilters": 18214,
  "ody": 1148,
  "rising": 17099,
  "Ġvodka": 31702,
  "ĠWatson": 12126,
  "ĠQuest": 11385,
  "orney": 3665,
  "Ġenhancement": 29568,
  "ĠReport": 7988,
  "Ġlift": 10342,
  "Ġnortheastern": 29956,
  "ĠRhod": 19833,
  "Ġpremises": 19446,
  "riend": 1256,
  "Ġpublish": 10900,
  "ĠHawkins": 27142,
  "Ġbell": 14630,
  "Federal": 21583,
  "Ġlooks": 2963,
  "Ġhateful": 25721,
  "Ġmoney": 1377,
  "ĠSpecies": 31096,
  "Ġancestor": 31007,
  "Ġevid": 24031,
  "Ġparental": 21263,
  "Wolf": 31611,
  "ate": 325,
  "Ġhollow": 20620,
  "ĠCAN": 18852,
  "ĠMad": 4494,
  "Ġnoted": 3764,
  "ighter": 4934,
  "Ġconstraints": 15950,
  "Ġ1997": 8355,
  "gian": 13055,
  "Ġchannel": 6655,
  "iles": 3382,
  "Ġdose": 12732,
  "Ġreconciliation": 21925,
  "Ġmemories": 9694,
  "Ġapprehend": 28402,
  "Ġendless": 12114,
  "cedented": 9679,
  "Ġnoticing": 26909,
  "Ġhome": 1212,
  "Ġtan": 24259,
  "Ġfights": 10293,
  "obo": 27089,
  "ĠProdu": 20942,
  "Ġrespectable": 24094,
  "ĠBu": 10687,
  "Ġbacterial": 24001,
  "Ġinterim": 15308,
  "Ġwonderfully": 30882,
  "ance": 562,
  "Ġdick": 27838,
  "pp": 335,
  "Ġclaims": 3186,
  "ĠNSW": 19225,
  "Top": 10153,
  "Ġadvice": 5850,
  "ĸ": 201,
  "ĭ": 190,
  "ĠAppro": 19029,
  "ĠIsle": 30233,
  "Ġace": 24421,
  "Ġconstruct": 5615,
  "Ġmemorable": 15539,
  "Ġexecutions": 24682,
  "Ġinit": 2221,
  "ĠFior": 31727,
  "Ġspinning": 18649,
  "Ġcompares": 21156,
  "ãģ¯": 20434,
  "Ġappar": 17629,
  "Ġparamount": 31906,
  "Aut": 18940,
  "ĠWillie": 24322,
  "Ġthank": 5481,
  "Ġmilitary": 1960,
  "Ġ42": 7221,
  "Ġannoy": 10418,
  "Ġasym": 24873,
  "umping": 20428,
  "ĠMT": 23932,
  "Ġdelegates": 11862,
  "Ġ},": 19683,
  "lasses": 30755,
  "Ġ2000": 4884,
  "Ġproblem": 1726,
  "Ġmus": 1780,
  "iegel": 29732,
  "Ġturf": 24814,
  "Ġthankfully": 31178,
  "ĠGawker": 30814,
  "idity": 17156,
  "ĠAccording": 4072,
  "Ġlovely": 14585,
  "Ġrecover": 8206,
  "amiliar": 17714,
  "Ġsubjective": 18366,
  "Ġpretending": 21080,
  "ĠLady": 11907,
  "ĠHighway": 13846,
  "Ġcausing": 6673,
  "ĠIRS": 13233,
  "ĠSupport": 11049,
  "Ġrepression": 22220,
  "Ġlament": 19473,
  "Ġsimulation": 17645,
  "Ġbargain": 19399,
  "ĠBullet": 25269,
  "Ġilleg": 3679,
  "ĠRiot": 24280,
  "anity": 19587,
  "15": 1892,
  "ĠWould": 10920,
  "Women": 17295,
  "Ġfeet": 3863,
  "Ġvary": 8217,
  "Ġroll": 4941,
  "isco": 18242,
  "ĠLiga": 30280,
  "itous": 17919,
  "28": 3746,
  "Ġtally": 20944,
  "ĠTreat": 12679,
  "Ġswe": 3740,
  "Ġaligned": 17588,
  "Ġcounterfe": 26560,
  "Ġvoc": 10976,
  "ĠScotia": 26409,
  "Ġexpectation": 15179,
  "Ġupdated": 6606,
  "okes": 2623,
  "Ġrouting": 29546,
  "inch": 8669,
  "Ġtelevised": 21887,
  "Ġtreasure": 15193,
  "ĠImperial": 15118,
  "Ġblow": 6321,
  "gree": 13041,
  "Ġurban": 6654,
  "Ġmouths": 27505,
  "Ġstarving": 30753,
  "Pop": 23592,
  "Ġprotestors": 26973,
  "ĠMount": 6121,
  "ĠBush": 4147,
  "reg": 2255,
  "Ġemphasizing": 29603,
  "Ġbands": 10521,
  "ĠGospel": 25335,
  "Ġopioid": 20375,
  "Ġinfl": 6708,
  "As": 1508,
  "union": 22357,
  "Ġstrongly": 6983,
  "255": 24593,
  "Ġoverview": 17865,
  "icted": 5137,
  "ĠHilton": 27456,
  "ĠFame": 14536,
  "270": 29462,
  "arily": 2972,
  "Ġswitching": 15005,
  "ĠTwitch": 24283,
  "Ġquasi": 27660,
  "Ġcolonies": 19410,
  "pers": 17925,
  "Ġprojections": 17010,
  "wives": 31187,
  "Ġrally": 6305,
  "ri": 337,
  "ĠLieutenant": 23232,
  "Ball": 29960,
  "Ġfollows": 6106,
  "Kar": 30739,
  "Ġopposing": 10441,
  "Ġuphold": 17277,
  "ĠHassan": 21859,
  "ĠConfederate": 17713,
  "¯": 108,
  "Aside": 26446,
  "Ġgi": 15269,
  "ĠAth": 13290,
  "allah": 20437,
  "use": 1843,
  "Ġlitigation": 16814,
  "Ġreplied": 9009,
  "Ġ5": 740,
  "Ġpredominantly": 18134,
  "liness": 26132,
  "ensor": 31298,
  "|>âĢľ": 16575,
  "Ġhappening": 4994,
  "Ġv": 368,
  "âĶĢâĶĢâĶĢâĶĢ": 20413,
  "ĠAlive": 31173,
  "Ġrecognizes": 19705,
  "electric": 24893,
  "ĠTibetan": 26855,
  "ĠIsaiah": 31708,
  "ĠSharks": 23600,
  "support": 26225,
  ".-": 8537,
  "ĠISO": 22113,
  "ettes": 22789,
  "Ġschizophren": 19944,
  "Ġunsupported": 18363,
  "Ġmon": 849,
  "ected": 15996,
  "Ġflame": 20432,
  "Ġmedd": 22605,
  "ĠVladimir": 12054,
  "Ġlapt": 9692,
  "Ġdisintegr": 27961,
  "ournal": 2311,
  "Ġprisoners": 9183,
  "Ġbark": 22131,
  "ata": 1110,
  "Advertising": 25436,
  "Ġends": 5587,
  "ĠAlgeria": 29859,
  "Ġsubject": 2674,
  "Ġgarden": 11443,
  "ĠPruitt": 29505,
  "ĠHT": 7886,
  "ĠRonaldo": 29896,
  "Ġexecution": 9482,
  "ĠCec": 24050,
  "Ġcritic": 3093,
  "Ġfavour": 6375,
  "Ġrap": 3777,
  "ĠSharia": 26085,
  "Ġturns": 5095,
  "Ġorganiz": 3934,
  "Ġintric": 20278,
  "Ġ91": 15598,
  "Ġbuyers": 12190,
  "ĠCros": 21190,
  "Source": 8879,
  "Ġjazz": 17540,
  "CT": 19175,
  "ĠStrike": 18434,
  "ãģ¦": 19580,
  "Ġexploit": 11601,
  "ĠVeterans": 18108,
  "lient": 14372,
  "ĠLaud": 27563,
  "Palestinian": 26009,
  "Ġfiat": 30869,
  "ĠÂ½": 29503,
  "endo": 26690,
  "ĠBond": 13811,
  "iliar": 4484,
  "Ġacts": 6399,
  "ĠKaine": 28244,
  "ĠIs": 1048,
  "Mobile": 15097,
  "Among": 11353,
  "ĠLap": 25515,
  "ĠSaints": 12576,
  "Ġdominant": 9825,
  "Ġintense": 7585,
  "Ġdiscussing": 9820,
  "ĠDef": 3885,
  "Ġmalware": 15038,
  "Ġaerial": 17091,
  "Ġaura": 29591,
  "Ġate": 16006,
  "Ġmistakes": 8811,
  "135": 23243,
  "ĠRidge": 19139,
  "Ġshook": 17225,
  "Ġput": 1125,
  "Ġsubstance": 9705,
  "Ġbetween": 945,
  "ĠSen": 1878,
  "ĠBox": 10104,
  "Graph": 26824,
  "Well": 5675,
  "ADVERTIS": 12976,
  "Ġlengths": 19943,
  "Ġlanding": 9504,
  "Ġfavoured": 31678,
  "Ġapocalypse": 31281,
  "Ġfocus": 2441,
  "Ġpraise": 11943,
  "ĠLeader": 9492,
  "rane": 12563,
  "OCK": 17878,
  "ĠCunningham": 28689,
  "Ġunfamiliar": 19933,
  "Ġlegality": 30099,
  "ĠRequest": 31058,
  "ĠDubai": 19203,
  "Ġuncont": 26955,
  "ĠSchwe": 31891,
  "ilo": 27521,
  "Ġsquee": 13030,
  "ĠCrown": 13004,
  "Ġare": 338,
  "ĠUpgrade": 26993,
  "ĠEugene": 22177,
  "Ġinspire": 15466,
  "Ġpeaks": 23873,
  "itely": 3788,
  "Ġpod": 7131,
  "Ġmasters": 18817,
  "Intern": 15697,
  "ĠTact": 27808,
  "mann": 7600,
  "Ġrailroad": 23033,
  ".âĢĶ": 23379,
  "inces": 15256,
  "Ġstatic": 11065,
  "ĠMinor": 24823,
  "ULT": 29253,
  "$$": 25464,
  "ems": 7808,
  "Ġmercury": 26478,
  "ĠPoly": 15518,
  "Ġextrad": 21058,
  "Ġdistributing": 23575,
  "Ġadditional": 3424,
  "Ġ1984": 11754,
  "natural": 11852,
  "usive": 8051,
  "ĠClint": 18315,
  "Ġpetitions": 27169,
  "eds": 5553,
  "Ġrebel": 11801,
  "Ġcogn": 8467,
  "Ġmessaging": 16178,
  "ĠUW": 27308,
  "left": 9789,
  "Ġriots": 18115,
  "Ġfinite": 25428,
  "Ġhousehold": 6355,
  "Ġmem": 991,
  "Broad": 29263,
  "Ġeasily": 3668,
  "Ġstretch": 7067,
  "Ġhindsight": 29835,
  "itious": 24007,
  "mines": 14319,
  "Ġnit": 13683,
  "rational": 17946,
  "Ġaccepts": 19529,
  "Ġjuice": 14425,
  "Ġoversight": 12347,
  "Ġsenate": 30208,
  "rary": 7087,
  "ĠNeal": 24757,
  "Ġteaser": 31141,
  "ĠIllust": 21605,
  "Ġmeetings": 7057,
  "Gold": 15421,
  "final": 18085,
  "ĠWu": 20675,
  "nik": 13856,
  "ĠWrong": 28524,
  "Ġallied": 20926,
  "bers": 1116,
  "\":\"": 10265,
  "MD": 16611,
  "Ġdegr": 22644,
  "better": 24272,
  "Ġimprovements": 8276,
  "ĠLGBT": 7581,
  "Ġburglary": 28915,
  "drop": 12625,
  "cious": 5136,
  "ĠCambod": 21382,
  "ĠJorge": 27845,
  "ulls": 31996,
  "Ġdistinct": 7161,
  "ĠFranklin": 12728,
  "Mir": 29052,
  "ĠBernanke": 31541,
  "fi": 11964,
  "BER": 14620,
  "Ġbattles": 9780,
  "Ġbeautifully": 20277,
  "Ġgear": 8424,
  "Ġprovide": 2227,
  "Eff": 23511,
  "Ġrecommending": 29864,
  "artney": 30979,
  "Ġshaft": 24808,
  "ampire": 18092,
  "Ġradically": 20529,
  "capital": 23076,
  "vin": 6596,
  "ĠArmenian": 22240,
  "ibilities": 7489,
  "Ġwinner": 7058,
  "aj": 1094,
  "Ġidentified": 4839,
  "hot": 8584,
  "Ġincidence": 22934,
  "ĠProte": 7774,
  "Ġcir": 30505,
  "ĠCollective": 31657,
  "Ġunanimous": 22379,
  "Ġawareness": 8372,
  "1992": 28916,
  "must": 28231,
  "Ġcollections": 16795,
  "Ġ1953": 21978,
  "za": 4381,
  "Ġpremiered": 27262,
  "Ġaftermath": 13089,
  "Ġseparate": 4443,
  "Ġrolls": 15141,
  "Ġjuvenile": 20774,
  "Ġpurported": 19234,
  "illas": 22442,
  "ĠOtt": 8007,
  "ortium": 20549,
  "Ġdownt": 6439,
  "ĠWine": 21879,
  "Ġvigorously": 28155,
  "ĠPar": 2546,
  "ĠâĢĻ": 7616,
  "Ġbasis": 4266,
  "outed": 15071,
  "bsp": 27261,
  "Ġride": 6166,
  "Ġdeveloping": 5168,
  "Ġarrog": 17819,
  "Ġcontamination": 20352,
  "Ġpir": 10680,
  "Ġplight": 23201,
  "Ġregain": 20108,
  "Ġtens": 9355,
  "ĠMer": 4748,
  "ĠESP": 7831,
  "101": 18131,
  "orf": 20366,
  "Ġpenet": 12819,
  "oka": 20495,
  "Ġgrinding": 29251,
  "ĠFREE": 21642,
  "*,": 31598,
  "omon": 17994,
  "Ġunderstandably": 28779,
  "metal": 31722,
  "Ġcontenders": 21586,
  "Ġindo": 21171,
  "ĠHugo": 22161,
  "ĠEd": 2285,
  "rooms": 9153,
  "ĠMuk": 25440,
  "Ġstreak": 13251,
  "Thread": 28340,
  "Obs": 30057,
  "Ġverb": 18246,
  "Manchester": 31730,
  "ICT": 31126,
  "ĠAlb": 15633,
  "ĠJP": 24494,
  "Ġvine": 20133,
  "TH": 5369,
  "Ġsustained": 11396,
  "Ġbolt": 24339,
  "Error": 24054,
  "Ġfloors": 18153,
  "Ġpilot": 7413,
  "Ġfunction": 2492,
  "ĠFilm": 11324,
  "Ġhackers": 13045,
  "ĠGregory": 19247,
  "ĠRegardless": 20754,
  "ĠLockheed": 26878,
  "Ġeight": 3270,
  "Ġadvising": 25529,
  "Ġvillages": 13209,
  "Ġcorpses": 29189,
  "ĠLegislature": 17462,
  "urches": 11264,
  "Ġchill": 20066,
  "ĠOsama": 23553,
  "Ġtray": 30091,
  "ĠBY": 13680,
  "Ġproportion": 10673,
  "Ġtasted": 31022,
  "2008": 14462,
  "Ġtroubles": 16251,
  "Ġparamed": 28162,
  "onen": 29454,
  "Ġally": 11134,
  "ison": 1568,
  "Ġwildly": 17320,
  "ĠPrin": 12791,
  "ĠCharlie": 10028,
  "Ġaffect": 2771,
  "mental": 17801,
  "ĠPack": 8103,
  "Ġcrit": 1633,
  "ĠAndrea": 20696,
  "Ġcreating": 4005,
  "iÄĩ": 27493,
  "Ġgreed": 16280,
  "Ġfunnel": 24454,
  "introdu": 25989,
  "Ġteamed": 24526,
  "Color": 18414,
  "Ġnegotiating": 14847,
  "Ġimplies": 15410,
  ",,": 26863,
  "Ġchased": 23732,
  "leted": 11051,
  "Ġminutes": 2502,
  "Ġrealization": 21369,
  "ĠWalking": 20415,
  "Ġadapt": 6913,
  "ISE": 28753,
  "Ġmask": 10149,
  "Ġinterior": 10393,
  "lud": 712,
  "ĠTransportation": 14369,
  "ĠLevy": 26084,
  "urt": 3431,
  "Ġillusion": 17212,
  "Ġsimilarities": 17874,
  "Ġtoward": 3462,
  "ooks": 30544,
  "Ġcomics": 10197,
  "heastern": 15590,
  "Ġsenator": 9091,
  "Ġdefiance": 28890,
  "Ġthousands": 3476,
  "Ġredu": 2022,
  "Ġportable": 17756,
  "ard": 415,
  "Ġrighteous": 23670,
  "ĠPersonal": 20268,
  "Ġinconvenience": 31608,
  "Ġaffecting": 13790,
  "big": 12882,
  "rikes": 16742,
  "ĠYahoo": 12997,
  "uty": 3735,
  "ĠSport": 11400,
  "Ġdiscusses": 19510,
  "ĠThai": 16771,
  "adow": 5719,
  "rists": 30441,
  "goal": 27971,
  "ĠGot": 16129,
  "Ġdr": 1287,
  "listed": 17226,
  "Ġinvade": 27570,
  "Ġreferencing": 28008,
  "iced": 3833,
  "Ð¾Ð»": 24243,
  "resolution": 27296,
  "Ġprobable": 18883,
  "James": 13454,
  "Ġgrandson": 26990,
  "Ġonly": 662,
  "Ġvisa": 13507,
  "idden": 5246,
  "ÅŁ": 21410,
  "Ġloving": 14121,
  "ĠMast": 29378,
  "Ġcharming": 22399,
  "ĠIntelligence": 8757,
  "Joseph": 28889,
  "Ġworkings": 30117,
  "ĠAndreas": 30174,
  "itional": 1876,
  "ĠHos": 23436,
  "Ġ85": 10279,
  "Ġdecades": 3726,
  "ent": 256,
  "iencies": 20526,
  "ĠWare": 28180,
  "Ġreceptor": 20475,
  "ba": 7663,
  "Ġassaults": 18676,
  "RNA": 28436,
  "Ġdiabetes": 13803,
  "ĠCSS": 15201,
  "ĠOption": 24104,
  "Ġclassical": 14063,
  "Ġcommence": 26254,
  "Ġt": 213,
  "Ġdream": 5501,
  "ĠHam": 3894,
  "Ġlots": 5626,
  "Ġclarification": 27759,
  "ĠPeyton": 28931,
  "ĠThor": 13250,
  "ĠRun": 9427,
  "ĠArmstrong": 17619,
  "Ġmilitants": 10410,
  "Ġpalm": 20356,
  "ada": 4523,
  "Aust": 12671,
  "ĠCommercial": 24012,
  "Ġarmor": 12862,
  "ĠHistory": 8591,
  "ARC": 26369,
  "abled": 5844,
  "Ġformally": 12505,
  "Ġmultip": 20049,
  "Ġarchitect": 5912,
  "ĠSou": 24163,
  "Ġpricing": 11733,
  "Ġreporter": 7328,
  "Comment": 23459,
  "Ġviolently": 24485,
  "Ġeverywhere": 7659,
  "charge": 12571,
  "Ġhips": 27798,
  "Ġstricter": 28835,
  "kered": 27001,
  "Ġliber": 3024,
  "fore": 736,
  "ocre": 24334,
  "ĠTesla": 10733,
  "psych": 23774,
  "Ġdig": 2865,
  "BSD": 25491,
  "Ġincent": 8010,
  "Ġinadequ": 16330,
  "ĠRangers": 10932,
  "dest": 17898,
  "Iron": 22381,
  "vote": 27706,
  "ĠGovernor": 9261,
  "Ġsandwiches": 27107,
  "och": 5164,
  "Ġnerves": 24846,
  "Ha": 27247,
  "ocating": 23360,
  "IO": 11438,
  "Ġscouting": 21815,
  "Ġlyr": 12241,
  "Ġterminated": 24329,
  "Ġgrade": 9664,
  "razy": 5766,
  "Ġdizz": 29282,
  "Ġyeast": 20843,
  "Ġfight": 1699,
  "ĠIrish": 7120,
  "issions": 6276,
  "ĠHel": 6499,
  "Ġspreadsheet": 30545,
  "shots": 25163,
  "icing": 6048,
  "ĠAustrian": 20191,
  "Ġapproach": 2814,
  "venge": 30722,
  "aucus": 12025,
  "Ġlarg": 2258,
  "Ġcalmly": 31725,
  "Ġfart": 15033,
  "ĠHyper": 19931,
  "ĠLovecraft": 31723,
  "Ġcris": 3540,
  "Ġ25": 2243,
  "Ġprovocative": 23019,
  "isconsin": 7370,
  "Ġreset": 13879,
  "Ġsane": 29905,
  "Ġpractition": 18236,
  "aggering": 17150,
  "ã": 158,
  "ĠComplex": 21950,
  "ĠSK": 16942,
  "rament": 13700,
  "Ġformed": 6506,
  "bach": 17596,
  "Matt": 16653,
  "Ġproposes": 22146,
  "ĠDomain": 30932,
  "Ġrefused": 5399,
  "od": 357,
  "ĠWeinstein": 19223,
  "ĠSpringfield": 25300,
  "ĠImages": 5147,
  "Ġcollected": 7534,
  "inge": 10719,
  "Ġcome": 1188,
  "Ġrelax": 9402,
  "ĠâĢ¦": 3440,
  "Ġfur": 9344,
  "ĠLeon": 9737,
  "ĠGlad": 26184,
  "ĠAnalytics": 28388,
  "orth": 1355,
  "Ġselecting": 19099,
  "Ġfacial": 15581,
  "Ġscheme": 6968,
  "rities": 16008,
  "Ġpeaceful": 10478,
  "Staff": 28018,
  "Ġpink": 12432,
  "dam": 12154,
  "Ġkernel": 14097,
  "ĠBelt": 16195,
  "Ġpredators": 19915,
  "Ġnights": 11792,
  "ĠAustralian": 5416,
  "intendo": 8464,
  "ĠAf": 1979,
  "11": 1582,
  "ĠNorthwestern": 26691,
  "Ġlocom": 29927,
  "ĠHad": 11404,
  "ocation": 6954,
  "Sal": 18547,
  "ĠRoll": 9989,
  "ĠKent": 7619,
  "Ġl": 258,
  "Ġunder": 701,
  "ation": 299,
  "Ġzeal": 25745,
  "ortheast": 13338,
  "owers": 3837,
  "ero": 3664,
  "Ġconclusion": 7343,
  "ĠAwesome": 31102,
  "âĢĶâĢĶâĢĶâĢĶâĢĶâĢĶâĢĶâĢĶ": 15352,
  "istry": 4096,
  "Ġamongst": 11737,
  "imize": 10523,
  "ĠRich": 3536,
  "ĠManafort": 20480,
  "ĠYou": 1008,
  "._": 27387,
  "ĠPoke": 18644,
  "Ġcoordinate": 19990,
  "ĠOfficer": 10743,
  "est": 341,
  "Ġreign": 11676,
  "uration": 5304,
  "ĠCru": 5438,
  "idy": 18319,
  "extreme": 23418,
  "ĠGay": 14683,
  "ĠSantiago": 28428,
  "Att": 12587,
  "hea": 23821,
  "ĠAval": 25565,
  "ĠCollect": 15495,
  "ĠWolf": 9507,
  "ĠProducer": 28058,
  "ĠLimited": 17667,
  "phas": 5379,
  "Ġ1972": 14330,
  "Ġreasonably": 14573,
  "ĠTED": 30862,
  "Ġprejud": 14532,
  "ä¸": 14138,
  "etary": 7615,
  "Bush": 28270,
  "lict": 20022,
  "ĠLink": 9612,
  "ARY": 18784,
  "Ġdual": 10511,
  "ĠBol": 10313,
  "tz": 19628,
  "Ġproud": 5853,
  "ĠGlobal": 7754,
  "Ġcommuters": 27603,
  "Ġlen": 24530,
  "Ġoutcome": 7226,
  "embed": 31972,
  "Ġalready": 1370,
  "irl": 2101,
  "Ġreferen": 15104,
  "Br": 10866,
  "odynam": 22708,
  "ze": 2935,
  "ĠPalmer": 15896,
  "Upon": 20592,
  "Ġbracket": 19478,
  "Ġlands": 8714,
  "Ġcapt": 2633,
  "ĠMill": 9167,
  "sk": 12108,
  "Brit": 13818,
  "Ġapparent": 3785,
  "Ġdiagnosed": 13208,
  "Ġtags": 18379,
  "let": 1679,
  "ĠStart": 8808,
  "Ġdiff": 776,
  "large": 11071,
  "BS": 4387,
  "Ġcorrectness": 24954,
  "cient": 3611,
  "Ġvague": 12349,
  "central": 30914,
  "ipes": 24207,
  "53": 7995,
  "Prot": 23683,
  "illion": 912,
  "ĠSuddenly": 25789,
  "ife": 864,
  "ĠCare": 7425,
  "Ġwashing": 20382,
  "Ġcro": 8480,
  "Leaks": 12081,
  "ĠSample": 28742,
  "geant": 26046,
  "Ġminors": 19014,
  "acted": 20248,
  "ception": 4700,
  "Ġnud": 22914,
  "ederal": 1771,
  "Ġnoodles": 31584,
  "Ġstaffers": 17184,
  "Ġfame": 14153,
  "ľ": 207,
  "wo": 3102,
  "ĠMickey": 24520,
  "cut": 9025,
  "asters": 7124,
  "Ġfert": 10787,
  "ĠRise": 22145,
  "Ġwarned": 6089,
  "Ġmuscular": 27833,
  "Ġen": 508,
  "147": 29319,
  "anc": 1118,
  "arly": 834,
  "rians": 16595,
  "ĠFrankfurt": 26803,
  "Ġcellular": 19254,
  "liber": 19776,
  "kef": 25819,
  "Ġtrailers": 29380,
  "ĠON": 8378,
  "Ġregulator": 21198,
  "Ġturtles": 30585,
  "digit": 24040,
  "Ġbuying": 6332,
  "Ġhype": 16958,
  "ĠTwenty": 20999,
  "Ġaircraft": 5572,
  "fold": 13539,
  "Print": 20009,
  "ĠFF": 20613,
  "Ġfiling": 11643,
  "ĠWash": 23406,
  "Ġperme": 28203,
  "ĠPeriod": 22389,
  "forward": 11122,
  "ĠFlip": 25250,
  "Ġcommittee": 4492,
  "inent": 5391,
  "Ġholidays": 15938,
  "Ġunilateral": 28947,
  "Ġpraising": 26469,
  "Ġpolic": 1500,
  "partisan": 21096,
  "Ġsuperv": 27358,
  "ĠZach": 16426,
  "Ġcritique": 16503,
  "illery": 13994,
  "360": 22827,
  "otional": 26070,
  "bre": 4725,
  "Ġyelling": 19368,
  "ĠManagement": 9777,
  "ĠCode": 9082,
  "ĠGree": 4713,
  "Moh": 29734,
  "Ġund": 3098,
  "Ġconcerns": 3987,
  "Ġassists": 11394,
  "ĠPirates": 20878,
  "Ġotherwise": 4890,
  "Hillary": 16094,
  "ĠHouston": 6383,
  "Ġcontested": 18860,
  "Ġawesome": 7188,
  "Ġgraphic": 11534,
  "]:": 13094,
  "PT": 19177,
  "Ġlibrary": 6307,
  "OND": 21911,
  "ĠâĢķ": 22417,
  "Ġfer": 11299,
  "Ġvast": 5193,
  "worth": 8239,
  "Ġarrangements": 14864,
  "Ġissue": 1828,
  "ĠTi": 19310,
  "Ġcracking": 22486,
  "Ġcannabis": 7837,
  "Ġpus": 3674,
  "----------------------------------------------------------------": 25637,
  "Ġminim": 15522,
  "Ġscale": 4715,
  "Ġcapture": 7362,
  "Ġmeets": 11772,
  "series": 24557,
  "uten": 9469,
  "ĠQuarter": 19049,
  "Ġdefinitions": 19109,
  "Ġtweet": 4910,
  "adin": 27298,
  "ĠDanny": 13303,
  "ville": 3902,
  "igr": 3122,
  "Ġindicted": 22164,
  "ĠValue": 18428,
  "ilst": 11417,
  "percent": 24458,
  "github": 23123,
  "ĠFort": 7014,
  "ping": 11405,
  "Ġincrease": 2570,
  "Ġmunicipality": 29731,
  "ĠKir": 7951,
  "Ġtasty": 26856,
  "henko": 21997,
  "ĠAmendment": 7770,
  "zsche": 31314,
  "ĠOcean": 10303,
  "Ġhopes": 5634,
  "Ġathletics": 28519,
  "Ġcopied": 20920,
  "Ġmount": 4115,
  "Ġstrain": 13107,
  "Ġnostalgia": 24315,
  "Ġstakeholders": 21374,
  "South": 13151,
  "ister": 1528,
  "Ġstabbed": 18861,
  "Ġcultiv": 11981,
  "ĠInterior": 17050,
  "AW": 28529,
  "Ġstarters": 15903,
  "Alan": 31940,
  "âĢĻ,": 7671,
  "WATCH": 27433,
  "TE": 10509,
  "ĠOwen": 19998,
  "sett": 19194,
  "Ġexhibit": 14786,
  "Ġspl": 4361,
  "Ġexpenditures": 23356,
  "Ġdebates": 11832,
  "ĠLocal": 11344,
  "1000": 17276,
  "ĠBoy": 6387,
  "Ġkilling": 4935,
  "ĠSteve": 5497,
  "ĠMs": 6269,
  "ĠSession": 30895,
  "Ġinland": 31118,
  "ĠMoy": 21851,
  "itudes": 9844,
  "Ġrises": 15832,
  "users": 20155,
  "Ġframeworks": 23890,
  "Ġunfairly": 24451,
  "Ġmud": 17116,
  "Ġprofitability": 31315,
  "Ġassemble": 23900,
  "phot": 29517,
  "Franc": 31609,
  "Ġmonument": 14593,
  "exp": 14705,
  "Thousands": 28375,
  "ĠMIN": 27123,
  "Ġdirection": 4501,
  "Ġyou": 317,
  "Ġpupp": 13519,
  "ĠHodg": 28637,
  "Ġlatest": 3032,
  "Ġaffairs": 8397,
  "Ġchop": 30474,
  "Ġentire": 1941,
  "arrass": 8183,
  "Ġadopted": 7633,
  "Ġcultural": 5446,
  "ĠAssistant": 15325,
  "Ġundeniable": 29811,
  "Ġfertile": 29054,
  "Ġunravel": 25944,
  "Ġ2001": 5789,
  "ĠJulian": 15270,
  "ĠPreviously": 27216,
  "ĠGujarat": 23310,
  "Ġchoosing": 10520,
  "arsh": 5046,
  "producing": 31072,
  "Black": 10821,
  "ĠMilton": 26250,
  "Ġinnate": 28441,
  "Mod": 9927,
  "These": 4269,
  "ĠNevertheless": 15096,
  "Ġinterests": 4733,
  "ag": 326,
  "Ġfallout": 21896,
  "Ġpoorer": 21806,
  "ĠNicole": 23018,
  "Ġromance": 19336,
  "Toronto": 25870,
  "Ġdubious": 20527,
  "333": 31474,
  "çĶ": 26310,
  "ague": 1701,
  "ĠGreenpeace": 30109,
  "issue": 23051,
  "ERO": 31124,
  "ĠCol": 1669,
  "Ġprompting": 17237,
  "ĠHind": 8945,
  "Ġstarter": 11938,
  "OL": 4487,
  "Ġderail": 27648,
  "Ġunreal": 20197,
  "Ġswing": 8782,
  "ĠFrank": 4775,
  "ĠPop": 8957,
  "oin": 25714,
  "ĠConstitution": 7267,
  "Officers": 26175,
  "ĠSc": 1546,
  "cat": 11426,
  "ĠFuj": 30621,
  "ĠAthletic": 23795,
  "Ġvested": 31700,
  "ĠAub": 16944,
  "Ġfruit": 8666,
  "ĠImpact": 19358,
  "ĠIr": 4954,
  "Without": 15610,
  "yan": 3574,
  "INS": 24482,
  "ĠShar": 14562,
  "Ġenc": 2103,
  "ĠPrice": 9486,
  "Ġapplic": 2500,
  "ĠWenger": 22717,
  "Ġsometime": 15124,
  "Ġcoordinated": 18425,
  "fl": 3272,
  "Ġsurvivor": 21610,
  "Ġhacked": 16078,
  "vie": 24584,
  "Ġprescriptions": 28963,
  "Ġmanufacturing": 7829,
  "Ġstraw": 15275,
  "Ġinception": 25925,
  "Ġlandl": 16076,
  "Ġstretches": 20603,
  "ĠAmbassador": 17861,
  "og": 482,
  "Ġsilly": 13154,
  "Ġcarpet": 19831,
  "ĠPeru": 22311,
  "Ġenlist": 28755,
  "Ġfeels": 4891,
  "scribe": 9581,
  "haus": 24639,
  "ĠFry": 23829,
  "Ġ105": 18387,
  "represented": 30039,
  "you": 6645,
  "ĠReagan": 10216,
  "Ġignored": 8917,
  "Ġferry": 23913,
  "ĠNat": 15361,
  "Ġextracted": 21007,
  "Ġridiculously": 29460,
  "ĠTri": 8646,
  "train": 25881,
  "inea": 18328,
  "Ġripe": 26294,
  "ĠLed": 19936,
  "graph": 10381,
  "Ġplot": 6285,
  "Ġslowing": 18336,
  "Ġse": 330,
  "ĠLibrary": 10294,
  "ĠGerald": 23279,
  "Ġcoaches": 8522,
  "ĠPump": 31307,
  "Ġtrade": 2882,
  "Ġbigotry": 23025,
  "ĠDreams": 26012,
  "Ġpurposes": 7078,
  "ĠClaus": 30577,
  "Ġcomfort": 4460,
  "Ġbanned": 7875,
  "Ġadd": 729,
  "Ġprevent": 3142,
  "rella": 18842,
  "Ġshorter": 12508,
  "ĠPalestine": 14064,
  "ĠMozilla": 24121,
  "Ġthrone": 19681,
  "Ġexceeded": 19487,
  "ĠTelegraph": 16383,
  "Ġabortions": 16845,
  "ĠAllen": 8387,
  "Ġdebacle": 30201,
  "ĠCounsel": 21980,
  "ĠLennon": 27994,
  "Ġdifferences": 5577,
  "ĠCall": 7584,
  "Ġtucked": 27208,
  "Ġinevitably": 14307,
  "ĠTimber": 28069,
  "ĠHorror": 26893,
  "ĠDevice": 30288,
  "ounding": 9148,
  "Ġobjected": 24222,
  "Ġdehyd": 31812,
  "Ġtells": 4720,
  "te": 355,
  "Ġfranchises": 21744,
  "Ġfrank": 12213,
  "Ġmerger": 19505,
  "ĠBenn": 12060,
  "Ġcapability": 12048,
  "ĠGreece": 8570,
  "ava": 4724,
  "Ġuser": 3251,
  "Ġopenness": 23796,
  "and": 345,
  "Ġraise": 4662,
  "Ġfees": 6928,
  "Ġweekly": 9305,
  "ĠCEOs": 25129,
  "Ġprostate": 30799,
  "bits": 9728,
  "ĠPlate": 30493,
  "ĠDaniels": 24171,
  "zon": 26493,
  "Ġselect": 3388,
  "Ġfemales": 13109,
  "mult": 20391,
  "Ġinsert": 16021,
  "ological": 2706,
  "contract": 27935,
  "ĠParks": 18010,
  "Ġawaken": 20633,
  "ĠImpro": 17498,
  "cess": 934,
  "ĠExaminer": 29106,
  "ĠPere": 14170,
  "ĠIGN": 24900,
  "ĠðŁĺ": 29184,
  "Ġheadlines": 11164,
  "ĠCAR": 25080,
  "bourg": 22072,
  "Ġbub": 9011,
  "ak": 427,
  "Ġiconic": 11551,
  "McC": 20035,
  "Ġdismal": 30832,
  "incoln": 10375,
  "Ġwaist": 20315,
  "ande": 27897,
  "report": 26144,
  "ixel": 11188,
  "Ġcontribute": 8135,
  "Ġwrestling": 13376,
  "ĠMarcos": 29625,
  "Ġzones": 12654,
  "Ġinfected": 12863,
  "Ġseen": 1624,
  "ĠInto": 23899,
  "Ġthesis": 19643,
  "ĠDoes": 8946,
  "ode": 1294,
  "Ġsymp": 8952,
  "Ġmix": 3659,
  "Ġbitter": 12248,
  "Ġpartition": 21352,
  "ĠSymb": 28821,
  "ĠRetail": 29198,
  "Ġpipeline": 9286,
  "Sk": 21827,
  "ĠTheatre": 13364,
  "man": 714,
  "onies": 15813,
  "Ġcalories": 16407,
  "ner": 971,
  "ĠTank": 23759,
  "love": 22471,
  "Ġbrake": 23192,
  "ĠSin": 11597,
  "Ġconscience": 16852,
  "ts": 840,
  "Ġmoment": 2419,
  "uo": 29444,
  "ĠEmmy": 24668,
  "Ġsq": 24725,
  "Ġdictated": 30334,
  "Ġconsent": 9521,
  "Ġfoundation": 7827,
  "Although": 6063,
  "Additional": 20445,
  "hops": 20903,
  "Ġlure": 22933,
  "Ġboots": 16014,
  "Ġinvested": 11146,
  "ĠDani": 20164,
  "ir": 298,
  "Ġway": 763,
  "oper": 3360,
  "Ġinevitable": 11107,
  "Ġpiss": 17772,
  "Ġrebels": 9988,
  "Ġthreats": 6144,
  "Ġmerits": 19736,
  "Ġlively": 28509,
  "usement": 26180,
  "fan": 16156,
  "ĠSz": 24394,
  "older": 26293,
  "Ġmeme": 22578,
  "Ġprofits": 8691,
  "be": 1304,
  "rit": 667,
  "Ġammunition": 14301,
  "Ġphilosoph": 6080,
  "ĠStudios": 13263,
  "Ġelites": 16785,
  "abs": 7797,
  "cow": 7031,
  "cribed": 13297,
  "Ġingred": 8479,
  "Ġ128": 18340,
  "ĠSilver": 9481,
  "ĠSCP": 18811,
  "dies": 22406,
  "Ġerror": 5230,
  "ply": 2029,
  "Ġ1080": 19593,
  "nick": 22913,
  "Ġhelpful": 8926,
  "Ġethic": 23677,
  "800": 8870,
  "Ġparties": 4100,
  "Ġmanipulate": 17752,
  "Ġenem": 3919,
  "item": 20793,
  "ĠTHE": 4856,
  "ĠMilitary": 13104,
  "ĠPony": 30748,
  "ĠAround": 16225,
  "Ġacquire": 12475,
  "Ġcleaning": 13262,
  "Ġgloves": 19314,
  "ĠFriedman": 20261,
  "Ġslain": 30648,
  "aker": 2983,
  "ams": 1811,
  "Ġexport": 10254,
  "++++": 22989,
  "ios": 4435,
  "Game": 12971,
  "ĠHeaven": 18780,
  "Ġcatastrophe": 21531,
  "Ġrepe": 2903,
  "Abs": 25014,
  "ĠKauf": 31841,
  "Ġcoffee": 6782,
  "ĠCla": 25167,
  "Ġimpossible": 5088,
  "ĠWhenever": 24309,
  "ĠHoll": 10056,
  "Ġdepended": 30987,
  "Ġlandscapes": 28072,
  "ĠLone": 25310,
  "Ġbackwards": 16044,
  "ĠSenior": 13514,
  "Cy": 20274,
  "SL": 9342,
  "La": 12321,
  "Ġreserves": 12525,
  "Ġtechnical": 5793,
  "Pot": 26521,
  "Ġexceeds": 24828,
  "Item": 21749,
  "ĠKrug": 30376,
  "Ġnegatively": 20521,
  "Ġpunching": 24831,
  "Ġrefine": 28983,
  "Ġbursts": 27948,
  "ĠConstant": 28472,
  "Ġbrilliantly": 31366,
  "Ġclues": 18492,
  "camera": 23293,
  "itating": 21447,
  "Ġarmour": 25537,
  "ĠNazis": 16485,
  "ĠRet": 7942,
  ",âĢĻâĢĿ": 20783,
  "Ġamazing": 4965,
  "ĠFIFA": 16207,
  "esville": 17207,
  "<|endoftext|>": 0,
  "ĠEstate": 25082,
  "Ġgr": 929,
  "Ġadminist": 2276,
  "Ġsought": 6214,
  "ĠFit": 24061,
  "Ġbonds": 11971,
  "ents": 713,
  "Ġascertain": 30945,
  "Ġclinical": 9724,
  "otherapy": 18841,
  "Ġdealers": 14135,
  "--": 841,
  "urous": 27770,
  "thon": 8173,
  "Sl": 14464,
  "Ġboosted": 24655,
  "ended": 1680,
  "agn": 4892,
  "Ġpremium": 8768,
  "Ġpedal": 28623,
  "Ġmotiv": 5602,
  "Ġdwind": 23765,
  "asonable": 17663,
  "Sund": 20797,
  "ock": 747,
  "ĠNinja": 27191,
  "Ġgram": 31333,
  "ĠNicholson": 31375,
  "jri": 29683,
  "Ġartist": 6052,
  "Ġcities": 3930,
  "ĠRising": 22318,
  "riors": 9775,
  "Brian": 21483,
  "ĠCairo": 18075,
  "ĠPanthers": 15044,
  "hers": 1869,
  "param": 27629,
  "256": 22905,
  "ĠOdyssey": 31265,
  "Ġ160": 16418,
  "Ġcall": 780,
  "ĠMa": 5811,
  "iblical": 16069,
  "ĠKurdistan": 21224,
  "Ġcomplete": 1914,
  "Ġabsorption": 29092,
  "ĠBA": 22848,
  "Ġreproduce": 22270,
  "Ġpoly": 8565,
  "Ġappend": 23261,
  "Ġvehement": 29733,
  "Ġworked": 2679,
  "ĠMason": 13801,
  "Ġdiscourse": 15530,
  "Ġcyn": 15753,
  "Ġcowork": 28501,
  "ĠBruce": 9570,
  "Fre": 24342,
  "Ġinventor": 27812,
  "Ġfrankly": 14757,
  "Creat": 29103,
  "({": 28243,
  "ĠVenezuela": 13216,
  "Ġnotices": 20771,
  "Ġreadiness": 27713,
  "Ġeffectiveness": 14221,
  "orrow": 4406,
  "sw": 2104,
  "Due": 21813,
  "Ġguarantee": 8663,
  "ĠER": 21794,
  "ĠRace": 14310,
  "Ġescort": 27866,
  "ĠEmma": 19006,
  "ĠMillenn": 19806,
  "step": 9412,
  "Ġactivation": 16861,
  "Ġstrategic": 8212,
  "ĠAlmost": 15731,
  "ĠSoy": 30345,
  "Ġger": 26986,
  "Ġhypotheses": 31503,
  "ructions": 22559,
  "ĠGO": 10213,
  "gal": 10253,
  "Ġboil": 23163,
  "Ġdistribut": 10929,
  "ĠLub": 28760,
  "ĠJagu": 19088,
  "Ġprivile": 7455,
  "ĠValencia": 28247,
  "Ġimagery": 16547,
  "MORE": 19355,
  "ĠLaura": 15301,
  "thought": 25021,
  "Ġconcluded": 7237,
  "à²": 24977,
  "Ġhistorical": 6224,
  "Dis": 10396,
  "ogue": 5589,
  "Ġlimits": 6982,
  "Ġassociated": 4291,
  "Ġnavig": 18234,
  "ĠYe": 15708,
  "Ġblatant": 23578,
  "Ġhomage": 26202,
  "Ban": 29682,
  "ĠAlto": 31781,
  "Ġpop": 1291,
  "ĠDocument": 23381,
  "Ġdiffere": 949,
  "achus": 8109,
  "ĠQueen": 8414,
  "ĠCoffee": 21144,
  "Ġfue": 26395,
  "Ġintricate": 25981,
  "Ġmerch": 10017,
  "lide": 23587,
  "ulent": 13794,
  "cor": 10100,
  "ĠHollande": 24834,
  "ĠISBN": 18087,
  "Ġdeflect": 28429,
  "Ġknown": 1739,
  "Ġtax": 1501,
  "ĠBoris": 22094,
  "Ġintimidating": 25463,
  "ĠTestament": 21889,
  "Ġautonomy": 17642,
  "olutely": 14600,
  "Pet": 27939,
  "ĠUT": 19300,
  "ĠPorsche": 22763,
  "Ġstrengthened": 23684,
  "Ġinfinitely": 31258,
  "Ġskept": 8987,
  "105": 19747,
  "ĠINT": 30439,
  "ĠBrandon": 12528,
  "ĠForeign": 7464,
  "Ġrebellion": 18735,
  "KS": 28332,
  "osen": 5211,
  "Democrats": 21045,
  "shire": 9012,
  "Ġsoldier": 10397,
  "guided": 19703,
  "Ġhorses": 14374,
  "threatening": 23049,
  "ĠOt": 20087,
  "ĠWalmart": 17240,
  "ĠSometimes": 9013,
  "Ġcyclist": 27400,
  "outube": 13813,
  "Ġstand": 1253,
  "Ġpossessing": 24724,
  "Ġweaker": 16857,
  "Ġrepl": 2134,
  "Ġreconc": 16213,
  "Ġcorro": 24113,
  "RS": 8018,
  "Ġopinion": 4283,
  "ı": 194,
  "Ġdeadliest": 31553,
  "playing": 16364,
  "ĠUr": 9304,
  "Ġrein": 6209,
  "ÙĲ": 29157,
  "Ġrights": 2105,
  "Ġincredible": 7253,
  "ĠPrince": 8891,
  "Ġimplicitly": 29729,
  "Ġcovers": 8564,
  "Ġpreced": 8588,
  "Ġsprawling": 24051,
  "ĠSteele": 23997,
  "Ġappl": 4091,
  "illance": 6110,
  "ockets": 12517,
  "ĠResp": 12276,
  "aunted": 25022,
  "ĠLanguage": 19111,
  "IAL": 20568,
  "Ġdiffering": 26307,
  "hn": 18995,
  "ot": 270,
  "ickets": 14858,
  "Ġwoman": 2303,
  "ĠIntern": 2241,
  "Ġphotographed": 21657,
  "Fred": 27649,
  "tainment": 10466,
  "Ġroaming": 29277,
  "Ġdealt": 11525,
  "ĠNSA": 8326,
  "Ġfuzz": 24245,
  "isi": 18647,
  "Ġaff": 1476,
  "sten": 23682,
  "Ġcousins": 26228,
  "Ġtribe": 15103,
  "Ġgaming": 7295,
  "Ġdismiss": 5685,
  "Ġprevious": 2973,
  "rowd": 3414,
  "Ġtroubling": 16239,
  "Ġrefugees": 6819,
  "ĠJohnston": 23731,
  "olid": 10761,
  "Ġopaque": 30526,
  "Ġtimes": 1574,
  "Ġutilize": 18080,
  "Ġanalysts": 10152,
  "Exper": 19867,
  "kick": 23435,
  "Ġelectrom": 25897,
  "ĠApart": 21204,
  "gin": 1581,
  "ĠEle": 15651,
  "Ġcompound": 13167,
  "Ġarose": 20362,
  "Ġvelocity": 17492,
  "ĠCraft": 20283,
  "Ġchanges": 2393,
  "Ġcharismatic": 28757,
  "alls": 5298,
  "gren": 27460,
  "QU": 18126,
  "ĠPod": 11881,
  "Ġforehead": 26833,
  "ĠAur": 18733,
  "Ġwasn": 2262,
  "Ġresemble": 20652,
  "Ġsedan": 30813,
  "Ġvict": 1933,
  "ĠTax": 10298,
  "ĠAllied": 23782,
  "Ġdas": 25187,
  "Ġclearly": 3814,
  "chant": 16812,
  "Ġreluctant": 15441,
  "Ġwiret": 25088,
  "ĠRain": 12364,
  "otic": 6117,
  "Ġquests": 26659,
  "Ġcasual": 8310,
  "Ġbehaviors": 13975,
  "ĠCavaliers": 24755,
  "ftime": 26767,
  "Ġgoals": 3769,
  "ĠSuicide": 29401,
  "Ġscanner": 26537,
  "almost": 24234,
  "gent": 6109,
  "approved": 26257,
  "ciously": 18898,
  "ophobic": 18655,
  "Ġloophole": 27864,
  "ĠMade": 16910,
  "ial": 451,
  "Ġtechnologies": 7155,
  "Ġdeclines": 21311,
  "di": 12328,
  "Ġdiagram": 21873,
  "Ġmatch": 2889,
  "liest": 10063,
  "ittle": 6445,
  "ĠFried": 12866,
  "ĠSpir": 10781,
  "Ġsite": 2406,
  "Ġdoll": 3115,
  "Ġarbitrary": 15167,
  "ĠIsraeli": 4657,
  "Ġfactions": 16738,
  "Ġarch": 3619,
  "imir": 10947,
  "Ġorchest": 19934,
  "criptions": 22439,
  "ĠCreator": 28512,
  "rench": 3200,
  "Ġslower": 13197,
  "Ġmedical": 3081,
  "ĠBatt": 16941,
  "Ġsubsc": 10295,
  "border": 22968,
  "Ġzero": 6420,
  "ĠBass": 21122,
  "89": 8165,
  "ãĢį": 31498,
  "Ġozone": 31599,
  "Ġneighbours": 19490,
  "ĠHar": 2084,
  "ĠDestroy": 30230,
  "Ġnoting": 8643,
  "Ġemperor": 25299,
  "ĠTu": 16568,
  "ĠHolmes": 15838,
  "ĠBain": 26578,
  "Ġbland": 31646,
  "Ġprocess": 1351,
  "Ġunfor": 24221,
  "Ġhearings": 14701,
  "Ġmarketing": 6339,
  "Ġprinter": 20505,
  "oor": 2830,
  "Ġsunny": 25108,
  "Ġhttps": 5571,
  "ounge": 20748,
  "ĠCarp": 23045,
  "ĠDarwin": 17884,
  "ĠAw": 12848,
  "ific": 811,
  "raq": 3066,
  "ĠOkay": 19954,
  "Ġactivated": 16836,
  "un": 361,
  "ĠDark": 7180,
  "ĠRaqqa": 25209,
  "Ġscrub": 26541,
  "Ġresurgence": 29570,
  "serious": 27120,
  "olicy": 23988,
  "Ġarrested": 4113,
  "Ġlaughed": 15080,
  "ĠBie": 24629,
  "ĠLegendary": 31716,
  "Mu": 31591,
  "Ġmigrants": 10070,
  "Ġgiven": 1777,
  "Ġepit": 20466,
  "Ġstreets": 5287,
  "never": 12692,
  "ĠClayton": 26938,
  "inis": 15435,
  "Ġnut": 7392,
  "Ġadvocated": 20281,
  "omach": 11931,
  "ĠOrange": 12103,
  "Ġ||": 17333,
  "Ġtun": 5694,
  "Ġtut": 9963,
  "Ġsubmissions": 22288,
  "Ġproclaim": 21552,
  "Ġwording": 26068,
  "Ġsustainability": 21153,
  "ĠLuna": 29926,
  "Kit": 20638,
  "Ġnm": 31494,
  "Ġrejection": 15919,
  "Ġunions": 8929,
  "ĠSar": 6548,
  "scill": 22673,
  "Ġdedication": 19619,
  "Ġfines": 14561,
  "Ġrevenues": 11469,
  "Ġlicense": 6880,
  "Ġpsych": 3721,
  "ĠWoods": 16782,
  "Ġprimaries": 18682,
  "Ġbesie": 30532,
  "held": 9336,
  "Enter": 21083,
  "ĠSinger": 24720,
  "Ġslipping": 27418,
  "Ġdepart": 5598,
  "Ġproactive": 27750,
  "Ġtoilets": 27093,
  "%)": 6611,
  "Ġmortal": 28349,
  "ĠComet": 31886,
  "Ġplanting": 23917,
  "ĠDom": 12619,
  "ĠFI": 25277,
  "Ġcorn": 11905,
  "Ġgam": 8544,
  "semb": 4603,
  "uth": 1063,
  "Array": 30302,
  "Ġresembles": 21373,
  "Ġcommunications": 6975,
  "Ġproclaimed": 21956,
  "Ġenfor": 11329,
  "ĠJam": 9074,
  "ingen": 29155,
  "Ġactivate": 18755,
  "ensed": 17151,
  "against": 27744,
  "ĠNigerian": 27479,
  "ught": 8985,
  "Ġgrim": 17081,
  "ĠFelix": 27508,
  "Ġaren": 3213,
  "Ġsquarely": 30609,
  "ĠUganda": 24491,
  "iscons": 7364,
  "Ġdowntown": 7507,
  "Ġdistances": 18511,
  "ĠCoach": 14491,
  "mot": 23721,
  "Ġidentifying": 12744,
  "Rs": 28490,
  "ĠCass": 13468,
  "ĠBeng": 12409,
  "Ġf": 234,
  "aternity": 16236,
  "ĠiPhone": 6055,
  "ĠDavidson": 24927,
  "ĠSeries": 7597,
  "Ðº": 10456,
  "Ġtaxp": 7631,
  "ĠJoint": 15739,
  "cards": 31370,
  "retty": 17896,
  "ÃĥÃĤ": 7004,
  "Ġskinny": 28060,
  "ĠMalays": 11424,
  "Cross": 25053,
  "religious": 22129,
  "Ġsightings": 29842,
  "Ġsham": 21705,
  "imedia": 18663,
  "Ð³": 22451,
  "vo": 11290,
  "Ġbody": 2046,
  "Recently": 19925,
  "ĠChar": 3175,
  "ĠRailway": 27903,
  "Ġconsists": 11337,
  "ĠNo": 1731,
  "ĠChrom": 27116,
  "Ġbonuses": 17414,
  "ĠSpe": 3278,
  "Ġaccused": 4359,
  "governmental": 27185,
  "Ġabruptly": 23853,
  "Ġarche": 20111,
  "Ġconco": 29599,
  "count": 11689,
  "Ġseventh": 12070,
  "dig": 13034,
  "Ġ1978": 14397,
  "Ġfranch": 6068,
  "Public": 15264,
  "ĠBrendan": 20487,
  "Ġcompact": 16424,
  "Ġbatter": 11072,
  "Ġcavalry": 31761,
  "Ġmile": 10421,
  "until": 27558,
  "ologically": 12047,
  "Ġ1955": 22484,
  "ĠArizona": 6657,
  "ĠElvis": 27929,
  "Ġdrilling": 14662,
  "ĠSpaceX": 20098,
  "pensive": 22893,
  "ĠVIII": 30805,
  "Ġidle": 25598,
  "Ġelevated": 15295,
  "ĠSadly": 24305,
  "Ġstirred": 31535,
  "Ġidentities": 15318,
  "ĠModel": 11062,
  "Ġwiki": 30426,
  "crat": 12630,
  "ĠArms": 23921,
  "Ġobjectives": 14848,
  "ĠFighting": 22701,
  "sponsored": 20239,
  "Ġperpetrated": 29681,
  "Ġenemies": 7207,
  "Ġcorner": 4947,
  "Ġminds": 8218,
  "Ġ(âĢľ": 8901,
  "ĠFiction": 28049,
  "ĠPope": 11005,
  "ĠMiller": 6839,
  "Ġcleric": 31560,
  "ĠPry": 27701,
  "ĠCrus": 21371,
  "Ġwere": 477,
  "Ġturbine": 30711,
  "Ġbowl": 9908,
  "Ġhiring": 10777,
  "os": 376,
  "ĠAMD": 13650,
  "ÂĢÂĻ": 28435,
  "Ġ14": 1966,
  "ĠKl": 12595,
  "ĠPOLITICO": 26899,
  "essed": 7373,
  "Reilly": 18371,
  "ĠAltern": 14994,
  "inter": 4716,
  "ĠDollar": 26778,
  "Ġomn": 22252,
  "Ġswinging": 24307,
  "Ġdou": 2211,
  "ĠGeek": 28440,
  "Ġcancers": 24085,
  "ĠImport": 21619,
  "Ġcentered": 17264,
  "ays": 523,
  "Cook": 31327,
  "102": 21547,
  "Ġspend": 3931,
  "Ġpredictive": 29841,
  "ĠClaim": 26017,
  "Ń": 212,
  "?)": 11233,
  "Civil": 30014,
  "Ġexperien": 3215,
  "Members": 22245,
  "Ġcleared": 11542,
  "Ġinviting": 20287,
  "ĠEL": 20575,
  "ĠFab": 13588,
  "Ġample": 22480,
  "ĠBannon": 15409,
  "Ġpartic": 1260,
  "ĠEarlier": 16342,
  "HT": 9053,
  "eteen": 30934,
  "Ġpenned": 26638,
  "Ġprecursor": 30386,
  "Ġdragon": 16505,
  "igger": 21901,
  "Ġup": 464,
  "ensity": 6775,
  "irtual": 14486,
  "Shortly": 24314,
  "Ġweakest": 31145,
  "Ġreceive": 3489,
  "Ġphysicians": 17491,
  "book": 1768,
  "Ġlamb": 18836,
  "Ġstainless": 31244,
  "Ġmund": 23780,
  "rison": 6595,
  "Ġcurs": 15817,
  "Ġprohib": 6324,
  "ĠCarlson": 27273,
  "aders": 9889,
  "rers": 27307,
  "Ġreceiver": 9014,
  "Ġpoisoning": 22264,
  "Ġpuzzles": 22974,
  "iper": 16039,
  "Ġconvenience": 15703,
  "Ġforget": 5829,
  "idal": 11169,
  "ĠSamar": 30427,
  "ilitating": 30200,
  "Ġincorrect": 11997,
  "ĠSochi": 30650,
  "activ": 18356,
  "Ġretaliation": 20357,
  "Ġgal": 8795,
  "rients": 19477,
  "Ġexpans": 17956,
  "Ġsimpler": 16549,
  "ĠAvoid": 29249,
  "orean": 26288,
  "Ġorganization": 3547,
  "Ġsteril": 29134,
  "Ġlid": 22074,
  "pract": 25102,
  "BL": 12141,
  "Ġultra": 13463,
  "Ġcommunicate": 10301,
  "ĠSirius": 29872,
  "Ġyields": 17904,
  "Ġdrawings": 21828,
  "Books": 31451,
  "ĠSandy": 15053,
  "ĠClick": 9337,
  "Ġconsortium": 27409,
  "Ġrepository": 17426,
  "otive": 17337,
  "Ġshirts": 19169,
  "imes": 921,
  "ĠEllison": 26362,
  "ĠGTX": 18983,
  "Low": 24442,
  "pri": 4083,
  "guard": 12445,
  "Ġnarratives": 21060,
  "Ġwaters": 8953,
  "Ġbubble": 12085,
  "Ġinvestig": 1711,
  "reat": 598,
  "anding": 16709,
  "ĠPolit": 6789,
  "Ġinequ": 8932,
  "Ġripped": 17413,
  "Ġconnects": 19276,
  "Ġchild": 1166,
  "Ġsecrets": 12970,
  "umbling": 13591,
  "hop": 8846,
  "168": 24261,
  "orically": 17209,
  "ĠCor": 2761,
  "Ġcrack": 5978,
  "Ġsequences": 16584,
  "ien": 1950,
  "Ġpracticing": 16748,
  "Ġdent": 17394,
  "Ġsparse": 26591,
  "Ġplayback": 14453,
  "Ġcampaign": 1472,
  "Ġoperative": 24666,
  "ĠSports": 6303,
  "Ġcanned": 30364,
  "Ġproduces": 10843,
  "scar": 10744,
  "Ġhighlighting": 18829,
  "Ġreferenced": 20041,
  "Ġpromotional": 17125,
  "ĠCold": 11086,
  "Ġlaunch": 3495,
  "uggage": 29268,
  "ĠBarn": 16365,
  "hand": 5289,
  "Ġacademics": 17090,
  "Ġpolitical": 1515,
  "URE": 19690,
  "yr": 5470,
  "ĠGarland": 30754,
  "Several": 12183,
  "Ġoverl": 11119,
  "Which": 12626,
  "âĢĶâĢĶâĢĶâĢĶâĢĶâĢĶâĢĶâĢĶâĢĶâĢĶâĢĶâĢĶâĢĶâĢĶâĢĶâĢĶ": 31462,
  "Ġfetal": 27925,
  "Ġprogrammer": 20580,
  "font": 26390,
  "etition": 16146,
  "opers": 20208,
  "76": 8222,
  "ĠUFO": 18960,
  "Ġkillers": 22152,
  "Ġmotivations": 23991,
  "ICO": 19366,
  "ĠCBC": 15498,
  "Business": 22733,
  "Ġpetroleum": 26211,
  "Someone": 25268,
  "Ġcollusion": 23035,
  "2004": 19799,
  "Ġtypes": 4251,
  "ĠBolt": 24590,
  "APP": 26110,
  "Ġanalyst": 9566,
  "Ġforest": 8600,
  "greg": 6319,
  "aco": 11061,
  "Ġconstitutional": 8263,
  "clad": 31927,
  "Ġgoddess": 25743,
  "ktop": 23139,
  "Ġseamless": 28606,
  "define": 30567,
  "cats": 23233,
  "Ġgunshot": 24425,
  "Ġplagued": 21987,
  "ascus": 16697,
  "Ġclarified": 23664,
  "Ġinspiration": 10495,
  "Ġcharging": 10724,
  "Ġraging": 27712,
  "Ġtrio": 16566,
  "Jim": 16375,
  "anking": 12813,
  "FM": 24546,
  "Ġdust": 9083,
  "accept": 11732,
  "ĠMoment": 29687,
  "cs": 12990,
  "Ġdisenfranch": 31165,
  "rets": 8572,
  "Ġport": 2566,
  "Ġimportance": 6327,
  "Ġhamm": 23743,
  "Ġlaptop": 11912,
  "Ġlisten": 5609,
  "Query": 21645,
  "pherd": 22174,
  "Ġintelligent": 11784,
  "ĠPear": 11425,
  "move": 21910,
  "ews": 16075,
  "Ġsaw": 2322,
  "Ġrelating": 13730,
  "fr": 9503,
  "Ġimpairment": 28659,
  "ĠMy": 2444,
  "ĠFuture": 10887,
  "Ġmom": 1847,
  "ĠGrab": 28615,
  "Ġpist": 13032,
  "Ġbio": 15223,
  "Ġhumour": 27467,
  "Ġbulbs": 31355,
  "ĠGerman": 2306,
  "Ġfoil": 25629,
  "anyahu": 11502,
  "Ġpersonal": 2503,
  "ouk": 31912,
  "ĠInternal": 21852,
  "Ġsleeve": 25977,
  "ĠKiller": 26600,
  "enty": 3623,
  "irteen": 21680,
  "ĠSouthampton": 24679,
  "later": 29012,
  "ĠFeb": 2784,
  "ĠHim": 17135,
  "buck": 29019,
  "Ġsocialist": 12831,
  "FBI": 31968,
  "ienced": 24707,
  "Ġmargins": 17040,
  "Ġempirical": 20637,
  "Ġcond": 1809,
  "Ġbog": 18725,
  "oby": 25212,
  "Ġoutwe": 23122,
  "ĠWol": 15815,
  "loo": 26590,
  "Ġenumer": 31487,
  "Ġlobb": 10654,
  "ĠArm": 8017,
  "Ġsinger": 11152,
  "zone": 11104,
  "Ġlabel": 5998,
  "spir": 25862,
  "uff": 1705,
  "Ġelected": 5407,
  "ĠCarib": 15873,
  "ĠRadeon": 28022,
  "Ġresembling": 28351,
  "aru": 15320,
  "ĠRank": 17405,
  "Ġexpelled": 23173,
  "Ġbread": 9140,
  "ĠGarc": 13662,
  "cyclop": 25648,
  "Ġcortex": 19731,
  "ĠWWII": 28255,
  "Ġclich": 28537,
  "OB": 30858,
  "),âĢĿ": 30380,
  "Govern": 22534,
  "ĠDoctor": 10534,
  "ĠInfo": 23176,
  "ĠReady": 26338,
  "ĠVive": 25542,
  "ĠMaster": 8923,
  "letion": 24419,
  "iden": 10988,
  "Ġjustify": 10638,
  "ĠDerby": 26146,
  "ĠSWAT": 30440,
  "ĠChicken": 23771,
  "Ġcra": 14077,
  "Ġvulnerable": 7526,
  "Ġweight": 4055,
  "Camp": 19659,
  "Ġstarring": 15513,
  "ĠRaw": 15786,
  "Ġunlocked": 22097,
  "ĠHe": 647,
  "ĠSara": 23194,
  "Ġideology": 10492,
  "ias": 5238,
  "ĠMethod": 14885,
  "Ġsights": 20574,
  "Ġmanif": 29280,
  "pal": 19060,
  "ĠHub": 13296,
  "Ġtell": 1469,
  "Ġimmoral": 27197,
  "ĠGiul": 26209,
  "Ġshared": 4364,
  "ĠCFL": 31168,
  "ĠPoint": 8071,
  "Ġresolutions": 20901,
  "Taking": 23482,
  "ÑģÑĤ": 16936,
  "Ġquo": 14640,
  "manned": 23311,
  "Best": 12650,
  "ĠSunder": 26974,
  "Ġ155": 27680,
  "Ġsupremac": 17517,
  "ampton": 16647,
  "Ġsocieties": 12894,
  "Ġcompliment": 18788,
  "Ġloyalty": 14260,
  "Ġflo": 6013,
  "Ġestim": 3587,
  "Its": 18280,
  "Ġexperiencing": 12344,
  "ĠFloyd": 21155,
  "Think": 19041,
  ".;": 21253,
  "Ġ1919": 26952,
  "adequ": 15306,
  "Py": 21243,
  "Ġprevailed": 31252,
  "{{": 28808,
  "ĠMajor": 7817,
  "Ī": 187,
  "Ġterrestrial": 31075,
  "ĠUran": 30877,
  "ption": 1447,
  "Ġimproperly": 31093,
  "Ġspilled": 27473,
  "ĠLibyan": 19380,
  "Class": 14967,
  "Ġable": 1412,
  "Ġprogrammes": 19832,
  "Ġtents": 25694,
  "ĠIreland": 6202,
  "Ġvarious": 2961,
  "Ġfig": 2124,
  "117": 24581,
  "Ġbishop": 25030,
  "ichick": 31707,
  "Box": 18252,
  "Ġatmospheric": 18188,
  "ĠPedro": 23079,
  "patrick": 23642,
  "ĠExpress": 11866,
  "ct": 290,
  "than": 12802,
  "ĠGallery": 13910,
  "Ġlaying": 15393,
  "Ġcoach": 3041,
  "Ġreality": 3400,
  "ovakia": 25006,
  "Ġspread": 3824,
  "ctors": 4531,
  "ĠDew": 23954,
  "Ġshoulder": 8719,
  "anka": 13220,
  "comes": 9002,
  "ĠAlt": 12920,
  "Ġdishon": 30548,
  "mur": 28660,
  "Ġlegalizing": 31399,
  "ĠLen": 11963,
  "ĠSyn": 20813,
  "Ġdiscounted": 27721,
  "ĠChristmas": 5976,
  "Ġretreat": 13087,
  "Ġfrequencies": 21237,
  "Ġcontext": 4670,
  "nt": 392,
  "Ġrecipes": 15454,
  "ages": 1088,
  "Ġscholar": 16909,
  "project": 20656,
  "ĠDrew": 16328,
  "ĠBaltimore": 8657,
  "ĠComics": 14194,
  "Ġrecord": 1490,
  "yang": 15479,
  "ĠFla": 18300,
  "Ġstaunch": 26397,
  "Ġups": 17813,
  "Ġbribery": 29408,
  "Ġexperienced": 5549,
  "ĠNun": 29470,
  "arents": 13005,
  "Ġdeveloper": 7100,
  "ĠGetting": 18269,
  "ork": 897,
  "Ġtoler": 7820,
  "ĠSyndrome": 29648,
  "ĠRev": 5970,
  "Ġthen": 772,
  "upon": 29820,
  "Ġrepeats": 30237,
  ".âĢĿ": 604,
  "Ġrendering": 14762,
  "Ġ9": 1108,
  "Aaron": 28401,
  "kee": 10032,
  "core": 8245,
  "Ġsoda": 20389,
  "Ġarg": 1668,
  "ĠCNBC": 25896,
  "ç": 162,
  "Ġclothing": 9675,
  "Ġwidening": 31067,
  "lance": 18166,
  "ĠMiz": 30671,
  "Topics": 21498,
  "ĠKind": 14132,
  "Ġsprint": 18487,
  "ĠFinals": 17220,
  "ĠSchwar": 23665,
  "ĠBrig": 16108,
  "Ġdied": 3337,
  "xi": 29652,
  "rencies": 11914,
  "upiter": 18458,
  "Ġincluding": 1234,
  "Ġfruits": 16783,
  "ascular": 18047,
  "ĠNow": 2744,
  "Roman": 29351,
  "clair": 24155,
  "ĠStefan": 25226,
  "Ġgospel": 22193,
  "Ġyoungsters": 25359,
  "Â®": 14228,
  "inv": 18951,
  "Ġappropri": 4853,
  "Ġbonus": 9089,
  "Ġreforms": 9428,
  "Ġaccessibility": 26477,
  "ĠMaj": 14739,
  "Ġmotorists": 26391,
  "ĠShak": 29650,
  "asy": 4470,
  "Ġshadows": 17432,
  "ride": 25377,
  "Ġchief": 3305,
  "ĠHitler": 10528,
  "posts": 25622,
  "Ġtrump": 15723,
  "east": 23172,
  "ĠArbor": 31288,
  "ĠStrip": 17198,
  "Ġpersecuted": 31846,
  "Ġfewer": 6423,
  "ĠRobertson": 19122,
  "ĠSpeech": 25558,
  "ĠNaz": 11794,
  "ANCE": 29701,
  "fight": 21161,
  "ĠTheir": 5054,
  "ĠCongo": 22479,
  "ĠCorn": 12975,
  "lex": 2606,
  "Ġcorrect": 3793,
  "Ġskin": 5178,
  "Ġdefinition": 7045,
  "Ġcompetence": 29629,
  "ĠRyan": 4895,
  "boards": 12334,
  "ĠRam": 6372,
  "ault": 2089,
  "Ġposition": 2204,
  "along": 21824,
  "Ġsingled": 26190,
  "Ġcouldn": 3411,
  "oko": 15833,
  "cel": 5478,
  "Ġnever": 1175,
  "ouch": 8167,
  "Edit": 27871,
  "Ġplaintiffs": 18882,
  "ther": 450,
  "ĠEagle": 18072,
  "ĠKob": 19948,
  "ARR": 30336,
  "Ġprotests": 6299,
  "ĠMann": 17286,
  "Ġthrust": 18037,
  "Ġinterven": 11800,
  "ĠKr": 11161,
  "ENS": 23994,
  "Ġmater": 26458,
  "cedes": 15736,
  "Ġaffiliate": 15052,
  "ĠTurkish": 7991,
  "java": 23365,
  "ken": 3699,
  "ĠCond": 14658,
  "Ġbeing": 764,
  "ella": 14088,
  "Ġrealize": 5950,
  "Ġquality": 3279,
  "Mark": 10188,
  "Ġtheater": 11323,
  "ĠEquality": 25495,
  "Ġanimal": 5159,
  "ĠRES": 26346,
  "Ġludic": 28335,
  "Ġinterviewing": 25873,
  "Ġdevelops": 20379,
  "Ġedit": 1461,
  "Ġnegoti": 4143,
  "Ġkind": 1483,
  "Ġ1933": 23767,
  "Ġordinance": 18327,
  "ĠArmor": 28052,
  "busters": 24540,
  "Ġdrown": 15347,
  "ĠChurchill": 22204,
  "Ġrace": 2823,
  "jamin": 11591,
  "Ġbanana": 24514,
  "Ġprocessing": 8006,
  "ĠFalse": 25081,
  "asm": 14090,
  "kil": 25943,
  "ĠÂ«": 19549,
  "Hub": 15311,
  "Ġprocesses": 7617,
  "Ġgen": 2345,
  "Ġrelentlessly": 30689,
  "Ġenzyme": 30252,
  "ĠLeadership": 25130,
  "ĠClintons": 24766,
  "ĠWars": 6696,
  "Ġhesitant": 28327,
  "Ġbullets": 15384,
  "Ġdecides": 12936,
  "Total": 18088,
  "Ġrethink": 27844,
  "igrant": 8226,
  "ĠFourth": 15565,
  "la": 4175,
  "ĠAway": 25877,
  "vig": 30831,
  "Ġcalled": 1283,
  "Ġsleek": 29614,
  "rophe": 18607,
  "Ġpanc": 22081,
  "Secret": 22084,
  "ĠMN": 30802,
  "ĠLiberties": 25631,
  "link": 11042,
  "Ġshouldn": 5877,
  "ONG": 23030,
  "ĠMedal": 22674,
  "ĠAssessment": 29055,
  "Over": 5869,
  "Ġ150": 7563,
  "Ġtargets": 6287,
  "live": 13398,
  "si": 16368,
  "Ġensuing": 24937,
  "Ġsmarter": 19827,
  "Ġmilk": 8110,
  "].": 5074,
  "Ġcurious": 10702,
  "Ġconception": 20488,
  "Ġmechanics": 12137,
  "Ġ17": 2028,
  "public": 12969,
  "Ġteasp": 20965,
  "chan": 3569,
  "ĠHogan": 20528,
  "caster": 30431,
  "ĠHoward": 8741,
  "ĠBuzz": 14211,
  "anted": 4561,
  "ĠConstruction": 23524,
  "Ġdistress": 16784,
  "ĠMob": 17408,
  "ĠGhana": 26551,
  "Ġapproved": 5756,
  "Ġdecent": 7044,
  "gar": 4911,
  "Ġshores": 25822,
  "Ġmast": 20853,
  "ĠEvery": 3948,
  "Ġcohes": 22224,
  "Ġhardship": 28479,
  "Ġrebuilding": 19956,
  "Ġleaking": 20735,
  "Ġdown": 831,
  "Ġrider": 18023,
  "Ġnotification": 16673,
  "ĠKobe": 25696,
  "ĠSe": 1452,
  "Ġjails": 31002,
  "Ġrevis": 18874,
  "ĠStan": 6028,
  "Ġdissent": 15415,
  "Ġweights": 21402,
  "Ġspectators": 26799,
  "Ġtiers": 30926,
  "Ġvehicles": 5276,
  "ĠFuk": 18726,
  "Ġson": 3135,
  "Ġsuspension": 10814,
  "eting": 13906,
  "enz": 16585,
  "Ġcancel": 15125,
  "Ġoverlooking": 30270,
  "cery": 31549,
  "ĠUnivers": 11109,
  "})": 30796,
  "Ġresolution": 6100,
  "Even": 5228,
  "Ġforeclosure": 28526,
  "ĠNC": 8084,
  "Ġproble": 1239,
  "ĠReality": 22682,
  "Ġextremely": 4376,
  "?]": 27737,
  "Ġadvoc": 4200,
  "Ġselfish": 18916,
  "Ġdefined": 6328,
  "Ġestablished": 4763,
  "cf": 21063,
  "Ġshadow": 9255,
  "Ġhappens": 3970,
  "Ġimpaired": 23274,
  "Ġannoun": 1789,
  "Ġfilmmakers": 21340,
  "Ġseeds": 11932,
  "ĠNDP": 14661,
  "ux": 3363,
  "ranged": 31202,
  "Ġtoys": 14493,
  "Ġaccent": 17732,
  "\":{\"": 30856,
  "ĠNormally": 31151,
  "Ġcommunicating": 20292,
  "Ġtemperature": 6272,
  "ĠDraw": 24075,
  "Daily": 26918,
  "ĠNelson": 11355,
  "iliary": 31785,
  "Mayor": 28284,
  "ovy": 22482,
  "ĠResources": 14597,
  "ached": 2407,
  "ĠCS": 9709,
  "Ġswept": 15611,
  "ellar": 14439,
  "ghai": 16640,
  "Ġscientifically": 28610,
  "Justin": 27610,
  "Ġtouching": 15752,
  "Ġoxid": 22127,
  "ĠPrint": 14875,
  "ysics": 23812,
  "ĠGmail": 26658,
  "imp": 7220,
  "Ġcrush": 19381,
  "Ġbeginning": 3564,
  "Jones": 20805,
  "ĠCherry": 25119,
  "Ġvibrant": 18423,
  "Ġskeptical": 14515,
  "ributed": 5699,
  "Ġdownstream": 29888,
  "Ġmosque": 15606,
  "Ġdo": 431,
  "ieri": 23788,
  "Ġol": 25670,
  "ĠWeap": 17271,
  "izzard": 16588,
  "à´": 28687,
  "covery": 16016,
  "years": 19107,
  "osite": 5637,
  "Ġatom": 23146,
  "reported": 26368,
  "Ġrestraining": 31852,
  "ĠHealth": 4174,
  "assuming": 30957,
  "Ġsnakes": 25746,
  "account": 23969,
  "Ġvoted": 5385,
  "ĠAngeles": 4761,
  "Will": 8354,
  "ĠAntar": 16301,
  "gency": 4571,
  "anyon": 20859,
  "fair": 18499,
  "Ġnotebook": 24640,
  "ellation": 26233,
  "Ġtalked": 5631,
  "mal": 7502,
  "ĠHayes": 20532,
  "ĠScalia": 25071,
  "ĠFur": 25658,
  "Ġnotch": 29347,
  "Ġsuppression": 21957,
  "Ġcoveted": 28420,
  "Ġpanic": 12614,
  "Ġalgae": 27967,
  "Ġtales": 17757,
  "orous": 9176,
  "Ġgrow": 1458,
  "]": 61,
  "Ġswings": 24973,
  "ourcing": 23490,
  "Ġmurderer": 27382,
  "Ġmetaphor": 20667,
  "ĠRepublic": 1523,
  "obile": 6820,
  "Ġsunk": 23856,
  "Ġsecond": 1180,
  "Mc": 8197,
  "horse": 27741,
  "ĠSmall": 12620,
  "Ġuncom": 7801,
  "Ġdrafts": 25434,
  "Ġmarried": 5900,
  "lantic": 21485,
  "thia": 30496,
  "ĠW": 329,
  "Large": 29815,
  "Ġcries": 24980,
  "Ġmethod": 2789,
  "Ġtelecommunications": 24292,
  "Ġhunt": 11908,
  "Since": 5503,
  "ĠHalloween": 15619,
  "Gov": 21784,
  "ĠEstonia": 27815,
  "ĠSV": 21511,
  "While": 3014,
  "Ġcomplaints": 8243,
  "Ġcereal": 30735,
  "ĠCambridge": 13054,
  "Ġan": 238,
  "ĠGeorge": 3832,
  "ĠProperty": 24565,
  "Ġeuros": 15841,
  "Ġdresses": 27559,
  "Ġdetectives": 20109,
  "Ġrage": 14481,
  "ĠCanada": 2929,
  "Ġspor": 30347,
  "Ġdefendants": 14890,
  "Ġproperties": 6764,
  "ativity": 19439,
  "arin": 16553,
  "ĠTiger": 18713,
  "ĠVersion": 19093,
  "CAR": 17340,
  "ĠVirt": 27754,
  "Ġjustice": 4690,
  "ĠDurham": 25496,
  "ĠThose": 5320,
  "ĠMiche": 25919,
  "Ġbury": 27097,
  "wright": 25332,
  "ui": 10117,
  "Sa": 31394,
  "ĠHalo": 18954,
  "Ġmiserable": 21506,
  "ĠArkansas": 13076,
  "Ġbass": 12583,
  "Ġbegins": 6147,
  "ĠAre": 4651,
  "ĠCat": 7160,
  "Ġtranslations": 26701,
  "Ġcollaborating": 30062,
  "Ġsomewhat": 6373,
  "ĠRights": 6371,
  "ĠGrad": 20481,
  "ĠGPS": 14250,
  "Ġzone": 5698,
  "Yeah": 11106,
  "Ġplanet": 4962,
  "Ġaccum": 10405,
  "ĠMetro": 9810,
  "Ġteeth": 10581,
  "ĠGa": 12538,
  "ĠSaturn": 19604,
  "six": 17948,
  "ĠMR": 22608,
  "ĠReform": 15656,
  "ĠCorp": 11262,
  "Ġspeaker": 10123,
  "Ġassociations": 15220,
  "Ġcohort": 23905,
  "hammad": 13337,
  "ret": 1191,
  "Ġauthent": 8597,
  "volume": 31107,
  "Ø¯": 27687,
  "nerg": 30275,
  "Ġwebs": 2460,
  "Ġprevail": 25649,
  "380": 30667,
  "ĠNorton": 27439,
  "ĠEM": 19205,
  "mind": 9391,
  "ew": 518,
  "ĠLoop": 29367,
  "Ġdeadlines": 31201,
  "ĠOK": 8024,
  "Ġquarterly": 25330,
  "Ġholy": 13862,
  "Ġconcentration": 11032,
  "Ġworse": 4220,
  "ĠNordic": 31304,
  "Ġrender": 9068,
  "Ġperhaps": 3373,
  "ĠBCE": 30695,
  "ĠCel": 19674,
  "Ġprovoc": 19144,
  "Ġexclude": 20212,
  "Ġroy": 9876,
  "Ġinterpret": 7369,
  "ĠNuclear": 18413,
  "Ġpostponed": 26564,
  "Ġschedule": 6607,
  "Ġpass": 1143,
  "Ġcommonplace": 27367,
  "ĠMcLaren": 25104,
  "Trump": 4903,
  "Ġdrift": 22987,
  "lander": 20547,
  "Ġplaying": 2334,
  "Ġbathroom": 11942,
  "Ġdensity": 12342,
  "ĠPosition": 29565,
  "ĠBaghdad": 16066,
  "ĠVor": 29474,
  "Ġcorrections": 24931,
  "Ġmidnight": 14614,
  "SE": 10416,
  "Ġstret": 5460,
  "Ġstage": 3510,
  "$": 4,
  "lette": 20218,
  "Ġterminals": 31433,
  "Ġlibraries": 11658,
  "Ġsupport": 1016,
  "Å«": 23012,
  "Ġ1956": 21660,
  "Ġmaps": 8767,
  "Ġmyst": 17370,
  "ĠRef": 8177,
  "ĠGolden": 8552,
  "tri": 27848,
  "ĠOnt": 8186,
  "Ġadmitting": 18934,
  "Level": 21082,
  "ĠFarage": 25934,
  "ĠRAM": 14880,
  "Person": 15878,
  "Ġlesser": 13840,
  "ĠYak": 30314,
  "Ġrifles": 17936,
  "Ġintimidation": 22052,
  "Ġ09": 16965,
  "Ġtolerate": 19514,
  "rial": 4208,
  "ĠSiber": 25784,
  "ĠLay": 20372,
  "Ġexposure": 7550,
  "Ġreceives": 12389,
  "Ġdrunken": 25314,
  "yards": 30688,
  ")\"": 25513,
  "ĠThey": 1045,
  "plete": 8542,
  "Ġenvelop": 16636,
  "ĠWings": 17395,
  "Ġcops": 11463,
  "Ġmicrophone": 20884,
  "ĠSubst": 30540,
  "gorith": 7383,
  "Ġstumbled": 21935,
  "Ġmisled": 31910,
  "ĠLights": 26214,
  "Ġstreams": 14560,
  "Ġsurrendered": 25490,
  "Ġflexible": 12592,
  "ĠAnders": 21287,
  "Ġadvert": 5759,
  "BR": 12944,
  "Ġwicked": 25461,
  "Ġentirely": 4564,
  "ĠSom": 9287,
  "Ġlowest": 8642,
  "ignant": 23449,
  "Ġtweets": 10120,
  "mination": 14317,
  "Ġcrisis": 3760,
  "ĠSoccer": 14725,
  "ĠCD": 7043,
  "Ġprotects": 17797,
  "ĠNY": 6616,
  "ĠAndroid": 4873,
  "ĠAbbey": 28882,
  "prisingly": 17657,
  "ĠIan": 12338,
  "urers": 31309,
  "venant": 20967,
  "odge": 10465,
  "Ġaddition": 3053,
  "letcher": 25174,
  "Ġemployers": 10207,
  "ĠGard": 11310,
  "ĠExpect": 23733,
  "Ġcelebr": 4173,
  "Ġmatching": 13599,
  "Ġwhom": 4121,
  "ĠOperating": 30845,
  "ĠSA": 14839,
  "Ġrivalry": 20363,
  "Ġoriented": 24430,
  "Ġrulers": 22676,
  "Ġ\"...": 30950,
  "ĠCroatia": 24648,
  "ĠNO": 11052,
  "........": 7400,
  "Ġvampire": 27843,
  "ĠFernando": 24665,
  "zing": 8964,
  "Ġmagnitude": 13472,
  "Ġsolicit": 31221,
  "ĠLin": 5872,
  "Ġsevere": 5773,
  "walk": 9309,
  "node": 27347,
  "eb": 1870,
  "Ġbooth": 16144,
  "Ġpains": 23563,
  "Ġfreelance": 22144,
  "Ġdisclose": 14306,
  "Ġmessages": 5861,
  "Ġreapp": 24910,
  "po": 6443,
  "oret": 9367,
  "Ġinnovative": 11415,
  "Ġ(+": 17624,
  "Ġdistributed": 8783,
  "ĠRhode": 21667,
  "ĠCertainly": 21407,
  "ĠRequ": 24759,
  "Ġwhich": 493,
  "ĠOpportun": 24011,
  "Ġballistic": 19489,
  "Sham": 28848,
  "Ġschedul": 5157,
  "ounty": 20461,
  "Tim": 14930,
  "itch": 3156,
  "ĠRot": 18201,
  "Ġmonitor": 8541,
  "Ġconfronting": 25676,
  "Ġdownloading": 22315,
  "Ġlawmakers": 7437,
  "Ġascend": 29978,
  "ressive": 5296,
  "aments": 11046,
  "DonaldTrump": 21848,
  "ushi": 20977,
  "raig": 9607,
  "Ġcompos": 12871,
  "ĠLex": 17722,
  "Ġconcepts": 10074,
  "Ġperformances": 10388,
  "ĠCharge": 27018,
  "âĢľ": 672,
  "Ġhttp": 2875,
  "Ġaccompl": 5917,
  "Ġnickel": 26322,
  "var": 11225,
  "ĠInstitute": 4418,
  "ources": 3155,
  "¨": 102,
  "distance": 29431,
  "Ġexceptionally": 22875,
  "Ġgri": 10689,
  "Ġappe": 26090,
  "uels": 11721,
  "ĠHoff": 18450,
  "ads": 7026,
  "122": 26721,
  "Ġmeasure": 3790,
  "Ġillnesses": 21426,
  "Ġrallied": 24795,
  "Ġimporting": 30931,
  "rath": 22790,
  "Ġstandardized": 24223,
  "111": 22346,
  "Ġweather": 5809,
  "focused": 21902,
  "ĠMess": 9899,
  "Ġwin": 1329,
  "fits": 19213,
  "ĠXen": 25876,
  "Ã¼": 6489,
  "Ġclo": 21452,
  "ĠShir": 23425,
  "Ġrelent": 15357,
  "Ġgeography": 23539,
  "Ġstrik": 4386,
  "Ġgenerous": 13058,
  "Ġsing": 1598,
  "Ġaccording": 1558,
  "Ġbab": 9248,
  "Ġcables": 17164,
  "Ġvulnerabilities": 19464,
  "icide": 4969,
  "Ġremedies": 31845,
  "ania": 4979,
  "iel": 7833,
  "Ġmel": 7761,
  "opt": 10798,
  "':": 16088,
  "Ġ95": 9317,
  "cm": 15158,
  "Ġguarded": 27023,
  "Ġongoing": 5883,
  "al": 239,
  "ĠGods": 23254,
  "Ġcontestants": 31160,
  "ĠDavies": 21591,
  "SEC": 29844,
  "roe": 18648,
  "Ġdeli": 2820,
  "Ġiv": 23674,
  "epend": 2377,
  "ĠPort": 4154,
  "Imagine": 20347,
  "Ġhunter": 20611,
  "tem": 1202,
  "ĠNormal": 25664,
  "ĠTVs": 27326,
  "Ġglitch": 31697,
  "ĠLamb": 19179,
  "Ġbidding": 21210,
  "Ġbreach": 12171,
  "umni": 21968,
  "Ġrelocated": 26684,
  "ĠWS": 24999,
  "wn": 629,
  "ĠCanadians": 11094,
  "ĠAlbert": 8471,
  "ĠWind": 3656,
  "ĠHook": 18507,
  "ĠFriend": 9944,
  "BP": 20376,
  "Ġinsurers": 19387,
  "astical": 31444,
  "aut": 2494,
  "ĠGuant": 19244,
  "Ġmil": 1275,
  "Ġsuperintendent": 28874,
  "Ġinspired": 6658,
  "Ġpriv": 1728,
  "Ġalerted": 23269,
  "¹": 118,
  "Ġreview": 2476,
  "Ġinnov": 5172,
  "ĠIndian": 3445,
  "Except": 30164,
  "Ġunch": 15004,
  "Ġbrink": 23266,
  "Ġmoisture": 23896,
  "Ġunintended": 24829,
  "Ġcommons": 30475,
  "iter": 4825,
  "ĠTask": 16726,
  "Ġcal": 2657,
  "Ġproductions": 26318,
  "Ġinvestigating": 8508,
  "float": 26485,
  "etroit": 6405,
  "Ġdecreasing": 23427,
  "Ġattachment": 20828,
  "Ġempowered": 25477,
  "iami": 6628,
  "auc": 12516,
  "Ġproximity": 18671,
  "ĠEverett": 31310,
  "ookie": 18948,
  "Ġmedals": 22581,
  "Ġ2016": 1767,
  "anco": 25615,
  "Ġefficiently": 16885,
  "Ġpoliticians": 5536,
  "ĠMouse": 26614,
  "aded": 5135,
  "area": 18326,
  "Ġdried": 17879,
  "ĠFrancois": 31566,
  "inking": 7747,
  "Ġgra": 5814,
  "ĠAlv": 24039,
  "r": 82,
  "Ġ(#": 21923,
  "Ġcontain": 4568,
  "Ġdisasters": 19723,
  "quote": 26728,
  "Ġland": 1835,
  "Ġrefresh": 22462,
  "velt": 14999,
  "Ġsm": 873,
  "Ġbranding": 22355,
  "ĠFlight": 15426,
  "ĠKevin": 6810,
  "Ġhurt": 5544,
  "Ġflies": 17158,
  "industrial": 24463,
  "Ġbene": 10151,
  "angers": 5819,
  "rient": 8158,
  "...]": 23809,
  "Ġmonitors": 18102,
  "Ġinstructor": 22086,
  "Ġviolence": 3152,
  "ale": 1020,
  "Ġsoutheastern": 31466,
  "Ġad": 469,
  "Ġhandle": 5533,
  "astery": 28286,
  "ĠOd": 13453,
  "aucuses": 27321,
  "Ġconcert": 10734,
  "IGN": 23228,
  "Ġsixty": 26944,
  "Ġinvestments": 9740,
  "Ġso": 478,
  "Ġautomatic": 11526,
  "olved": 5452,
  "ĠCan": 1429,
  "Ġscrambled": 31450,
  "Ġboom": 10847,
  "ocus": 12260,
  "Ġreconsider": 23507,
  "Ġpursuing": 12963,
  "Ġcrews": 15549,
  "ĠTut": 24525,
  "Ġstatewide": 18763,
  "Ġinstitute": 19772,
  "ĠBowman": 31284,
  "Ġeliminating": 16124,
  "play": 1955,
  "reamed": 15181,
  "Ġevolution": 6409,
  "Ġsuccession": 21088,
  "Ġslaughtered": 30927,
  "Ġterrorist": 5993,
  "fif": 29163,
  "Ġorn": 25118,
  "Ð¾Ð³": 28140,
  "Ġcutting": 7071,
  "Ġassertion": 16966,
  "iques": 6343,
  "Ġpollut": 29934,
  "lib": 12808,
  "GN": 15654,
  "================": 13137,
  "ĠDex": 26231,
  "plom": 5688,
  "Ġraid": 12132,
  "Ġaffluent": 26968,
  "ĠDevils": 20945,
  "ĠArmed": 16314,
  "Ġshelter": 11332,
  "economic": 15503,
  "Ġsurvey": 4888,
  "otten": 7252,
  "ĠTy": 4687,
  "ĠShen": 21753,
  "ĠBitcoin": 5299,
  "Ġleaves": 5925,
  "oice": 9590,
  "llect": 6460,
  "ĠJas": 23182,
  "Ġq": 15674,
  "Ġspokesman": 4721,
  "itial": 14474,
  "url": 13738,
  "Ġnotion": 8091,
  "Rock": 20004,
  "----": 1535,
  "Ġadvises": 29149,
  "GG": 20341,
  "Ġpromin": 16322,
  "Ġenforcing": 22426,
  "flight": 19916,
  "ĠCind": 25196,
  "Ġspectacular": 14400,
  "Block": 23769,
  "umably": 27535,
  "iable": 3757,
  "zan": 21988,
  "levard": 17993,
  "ĠEnvironment": 8677,
  "ĠStern": 20170,
  "Ġrichest": 19625,
  "ĠJud": 4838,
  "Ġhardcore": 20383,
  "Ġbeams": 27466,
  "ĠRecession": 31386,
  "Ġimpoverished": 27109,
  "Ġprofess": 2291,
  "Ġperforming": 9037,
  "Star": 8048,
  "ĠNothing": 11423,
  "ĠPolitical": 13678,
  "Ġafter": 642,
  "Ġsubsidiary": 20626,
  "Ġcapitalists": 27736,
  "Roy": 27043,
  "Ġadmission": 13823,
  "ĠKN": 26759,
  "mediately": 23604,
  "ĠStrategic": 23078,
  "Ġfighters": 7139,
  "ĠVill": 9273,
  "Ġatomic": 17857,
  "Ġcategor": 20511,
  "ĠFest": 25353,
  "mercial": 16699,
  "Ġaffirmative": 28119,
  "ĠAssass": 23718,
  "Ġbeen": 505,
  "Ġmot": 2335,
  "Ġgiant": 5787,
  "ushima": 21676,
  "ĠTheft": 31469,
  "Ġbox": 3118,
  "Ġorganisms": 18604,
  "Ġattached": 8398,
  "pod": 30675,
  "ĠCO": 8161,
  "Ġdrastically": 18787,
  "Ġauthor": 1734,
  "hani": 29598,
  "inental": 18724,
  "ĠCards": 20596,
  "Ġrestored": 14617,
  "Ġsketches": 28367,
  "ĠDead": 7679,
  "ĠEqu": 9843,
  "Ġnovelist": 28987,
  "Ġeco": 28651,
  "Ġexperimental": 11498,
  "iss": 722,
  "Ġimpat": 28589,
  "Ġsupplier": 22527,
  "ĠSham": 25671,
  "Ġas": 309,
  "Ġfellow": 5111,
  "Ġcryptocurrencies": 25701,
  "Ġbud": 2955,
  "ĠConsequently": 25541,
  "ĠPor": 17122,
  "inda": 19775,
  "ETT": 30131,
  "ALLY": 23646,
  "lies": 6920,
  "Ġancient": 6545,
  "Ġannounced": 2574,
  "Ġintermedi": 15795,
  "Ġturbines": 25084,
  "pad": 18241,
  "Ġmembrane": 26907,
  "rather": 30304,
  "Ġbail": 8120,
  "Ġtip": 8345,
  "Ġpumping": 23763,
  "ifiable": 16317,
  "Ġimpose": 11917,
  "ĠBing": 25575,
  "ĠAffairs": 9673,
  "Ġboat": 8539,
  "ĠCreat": 9903,
  "ug": 1207,
  "Ġpropos": 4061,
  "ĠJones": 4624,
  "Ġideas": 3712,
  "haps": 2521,
  "Ġcorrectly": 10243,
  "Data": 12259,
  "Ġlineback": 12223,
  "Ġphase": 6986,
  "ĠKenneth": 21146,
  "Ġaffair": 12622,
  "ctor": 2599,
  "ĠHuck": 22119,
  "ippers": 26835,
  "Ġneighbor": 4362,
  "Pacific": 19792,
  "ĠGriffith": 26365,
  "ĠItem": 30105,
  "Ġnuanced": 27187,
  "Ġfreed": 17626,
  "ĠSHARES": 31417,
  "Ġcycl": 11020,
  "Ġinvari": 25841,
  "ĠMash": 28216,
  "Up": 5325,
  "Ġpolicy": 2000,
  "Ġfetus": 30379,
  "ĠWithin": 13357,
  "ifiers": 16303,
  "agement": 2940,
  "Ġaffects": 11418,
  "ren": 866,
  "Ġcharacteristics": 10640,
  "ixels": 17171,
  "Ġgrenade": 27135,
  "ĠCathedral": 27725,
  "Ġdisclosures": 26491,
  "Ġsentence": 6618,
  "Ģ": 179,
  "ĠUnblock": 23631,
  "Ġelabor": 11284,
  "ĠYemen": 9699,
  "Ġclust": 30591,
  "Ġ1915": 27006,
  "Wik": 31922,
  "Ġassumes": 18794,
  "Research": 24269,
  "Ġburg": 14162,
  "Ġinhabit": 14343,
  "Ġpowerless": 30163,
  "Ġactive": 4380,
  "Ġtrillion": 9580,
  "estine": 20158,
  "Sarah": 25076,
  "ĠChe": 3317,
  "Ġfilings": 24074,
  "shore": 11602,
  "Ġdivide": 12360,
  "ĠÅ": 16209,
  "Ġpropag": 7643,
  "illo": 13538,
  "ĠSurface": 18176,
  "Ġaltern": 3748,
  "Ġoverwhelmingly": 16775,
  "galitarian": 31826,
  "Ġmembr": 21440,
  "children": 16103,
  "positive": 25078,
  "Pros": 31521,
  "ĠOccup": 12874,
  "Ġshuttle": 19581,
  "orig": 12653,
  "Ġmediocre": 25678,
  "wyn": 25252,
  "Ġhydraulic": 31011,
  "Ġbed": 4412,
  "established": 23750,
  "ĠLegislative": 27865,
  "ĠUE": 23409,
  "Ġrising": 6213,
  "ĠCube": 29766,
  "ĠCruz": 6694,
  "Ġsome": 539,
  "Ġlinger": 29886,
  "ĠXia": 23253,
  "moving": 27886,
  "Ġscientists": 4395,
  "Ġentrepreneurs": 13475,
  "ĠZack": 27968,
  "Ġconstituents": 17912,
  "result": 31196,
  "ĠSize": 23099,
  "ĠDelivery": 28598,
  "Ġranking": 11018,
  "Based": 15508,
  "Ġtonight": 9382,
  "abulary": 20810,
  "arer": 11783,
  "cia": 28948,
  "Ġexh": 21735,
  ")]": 29838,
  "ĠKerry": 12668,
  "ĠIslamists": 24751,
  "Ġintellectuals": 25219,
  "ĠCommon": 9564,
  "leg": 1312,
  "Obama": 11227,
  "Ġsan": 4707,
  "ĠMust": 13777,
  "reland": 5959,
  "Ġshipping": 9906,
  "commun": 10493,
  "Ġawful": 11493,
  "iform": 7009,
  "reci": 26585,
  "Ġperimeter": 22505,
  "Ġtemple": 13452,
  "asonic": 30348,
  "dep": 10901,
  "Ġclassmates": 25371,
  "Ġhierarch": 25974,
  "ĠQualcomm": 26983,
  "Ġceased": 24228,
  "Ġcooperation": 9465,
  "ĠBachmann": 28152,
  "Ġvot": 1163,
  "Ġyo": 28973,
  "Change": 25339,
  "Ġhonors": 21691,
  "ĠMis": 17147,
  "vert": 1656,
  "ĠKaz": 15769,
  "ĠDouglas": 13861,
  "ĠJung": 25292,
  "Ġdonor": 15827,
  "ĠBrussels": 12694,
  "Ġrain": 6009,
  "Ġgrowth": 2987,
  "utic": 19026,
  "ĠChron": 11288,
  "Sex": 24250,
  "RI": 8303,
  "Ġbeast": 16860,
  "ĠOrt": 24928,
  "Ġquestionnaire": 30846,
  "ĠIke": 31840,
  "ĠCustoms": 21669,
  "Rober": 13749,
  "Ġdevastating": 11612,
  "EW": 7175,
  "Ġpne": 24569,
  "Ġcontacting": 29180,
  "ĠTa": 12735,
  "brew": 12272,
  "Ġdisl": 26608,
  "?âĢĻ": 11201,
  "Ġcaptive": 24820,
  "Ġhood": 14281,
  "Ġhus": 4549,
  "Ġrequested": 9112,
  "ĠRole": 23020,
  "Ġ53": 9323,
  "UCK": 22503,
  "entin": 30762,
  "Ġpreach": 31855,
  "Ġreductions": 18396,
  "ĠNI": 24251,
  "Ġ67": 11491,
  "BN": 10815,
  "Th": 756,
  "Ġpresents": 10796,
  "Ġleather": 13918,
  "Ġ66": 10862,
  "Ġentr": 8658,
  "ĠBlake": 11904,
  "stones": 28491,
  "ranging": 26006,
  "ĠFarm": 12589,
  "ertainly": 16245,
  "forth": 24646,
  "ĠOrioles": 24467,
  "olic": 3854,
  "well": 4331,
  "Ġdelay": 5874,
  "env": 30861,
  "Ġhits": 7049,
  "Ġsequencing": 28625,
  "ĠYaz": 29384,
  "Music": 22872,
  "defined": 25408,
  "Ġcandy": 17447,
  "ĠNHS": 15809,
  "Ġsupervisors": 31299,
  "ĠRene": 26262,
  "ÑĢÐ°": 17532,
  "Ġ720": 31219,
  "Ġdivision": 6440,
  "ĠBash": 13411,
  "Ġregist": 5028,
  "ĠWells": 15272,
  "2006": 18335,
  "Ġcalculations": 16464,
  "Ġbrass": 21457,
  "Ġdwarf": 23521,
  "Controller": 25894,
  "ĠDuc": 22965,
  "Ġflav": 10917,
  "Ġdough": 17255,
  "ĠLeah": 26620,
  "Ġblind": 7648,
  "hetic": 6412,
  "Ġlobbying": 13285,
  "Ġblood": 3252,
  "Ġpseud": 14365,
  "ibus": 28996,
  "Ġdismissing": 31525,
  "ĠHarbor": 19338,
  "Ġplans": 2774,
  "irrel": 24148,
  "driving": 18699,
  "uable": 6627,
  "Ġtrainer": 20847,
  "Ġtragic": 13248,
  "ĠHait": 15497,
  "ĠEasy": 21420,
  "Ġbelonging": 15931,
  "amon": 17680,
  "liver": 12239,
  "Sometimes": 13755,
  "Ġreplacement": 8820,
  "Ġboosting": 23574,
  "Ġslowly": 6862,
  "Ġacknowledged": 8824,
  "ĠHeather": 22391,
  "Ġsupplying": 25206,
  "Ġpatriotism": 29016,
  "Ġerupted": 19012,
  "ĠFi": 24219,
  "ward": 850,
  "Ġmasculine": 26555,
  "ĠPick": 14413,
  "Alex": 13467,
  "ĠSweden": 9085,
  "Ġagenda": 6671,
  "ĠNolan": 22622,
  "O": 47,
  "Ġmajority": 3178,
  "unal": 18445,
  "Ġregulated": 15800,
  "ãĤĭ": 19571,
  "Ġera": 5377,
  "ĠMine": 16125,
  "Reb": 30204,
  "Ġpolitely": 30966,
  "erting": 15560,
  "Ġbund": 12133,
  "Ġappalling": 26942,
  "ĠRPG": 15891,
  "icers": 14773,
  "Ġyear": 515,
  "balanced": 27637,
  "ĠBach": 18021,
  "Ġbehavi": 6157,
  "Ġpremier": 14863,
  "ĠMag": 3989,
  "Ġsimplest": 22870,
  "themed": 21556,
  "Ġstat": 2220,
  "ĠBoys": 17041,
  "ĠProp": 9354,
  "ung": 2108,
  "Ins": 18732,
  "Ġstrateg": 4660,
  "ĠUSD": 15839,
  "dominated": 26569,
  "ĠAJ": 26486,
  "Ġsway": 18462,
  "Ġrh": 18890,
  "Ġmadness": 21663,
  "Ġ/": 2016,
  "05": 5603,
  "Ġpace": 7506,
  "Ġtenant": 28514,
  "Ġpassage": 9689,
  "Ġrude": 22766,
  "ĠMcCoy": 25872,
  "CLA": 15499,
  "ĠArabs": 18911,
  "ĠDoctors": 25213,
  "note": 12860,
  "Ġcurrencies": 15929,
  "Ġans": 9593,
  "Contin": 17862,
  "Furthermore": 21491,
  "Ġsalt": 9147,
  "Ġsympathetic": 18999,
  "Ġposed": 12659,
  "ĠDian": 16659,
  "em": 390,
  "Ġspy": 12203,
  "dden": 4931,
  "Ġreinvent": 28117,
  "Ġmotive": 18901,
  "resents": 5890,
  "Ġsecrecy": 18741,
  "Ġaccompanied": 11370,
  "Ġocc": 1654,
  "Ġbasketball": 7748,
  "ĠWen": 31234,
  "ator": 1507,
  "Ġtokens": 16080,
  "Ġunhappy": 16967,
  "otine": 18679,
  "ĠSher": 5997,
  "ĠAfghan": 4706,
  "cript": 6970,
  "ria": 7372,
  "Ġ330": 29918,
  "ult": 553,
  "ĠCop": 16020,
  "Ġunrealistic": 26082,
  "ĠPearl": 18574,
  "Ġgif": 9565,
  "ussen": 27210,
  "ĠBeyon": 30729,
  "ĠMcG": 7924,
  "class": 5361,
  "Ġpath": 3307,
  "Ġsignificance": 11338,
  "Ġ>>": 14910,
  "Ġsinking": 23679,
  "Ġhurdles": 25451,
  "Ġhobb": 29227,
  "rab": 18752,
  "ĠJohnny": 14021,
  "Mary": 22373,
  "Ġdwell": 20615,
  "ross": 1161,
  "Ġinvisible": 15327,
  "ĠPurdue": 28767,
  "Ġawhile": 27488,
  "Ġattach": 16474,
  "Ġfreely": 12519,
  "Ġinaug": 11141,
  "rax": 27622,
  "byn": 12277,
  "ĠRC": 13870,
  "ĠAt": 1594,
  "Ġsoon": 2405,
  "Ġ144": 28204,
  "Ġneigh": 2915,
  "Ġsisters": 14106,
  "icultural": 22046,
  "ĠLie": 12394,
  "deep": 19042,
  "ĠInsurance": 19635,
  "ĠVictor": 7271,
  "Ġcertainty": 17275,
  "ĠStones": 28292,
  "ĠPerfect": 21463,
  "oft": 7285,
  "nen": 27264,
  "Ġseparatists": 29077,
  "Ġhardest": 15152,
  "Ġswarm": 30530,
  "Ġimmort": 21025,
  "ĠPi": 11600,
  "ĠBecome": 30223,
  "thanks": 30789,
  "Ġbend": 20666,
  "ĠScotland": 7168,
  "Ġillustration": 19770,
  "Ġpier": 20912,
  "Ġgrapp": 18847,
  "jriwal": 30446,
  "ggle": 15893,
  "Comm": 10065,
  "ĠBJP": 13532,
  "ĠScient": 8843,
  "ortheastern": 22929,
  "Ġtraced": 20740,
  "ĠRos": 9036,
  "ATA": 21117,
  "Ġrural": 8404,
  "Ġbang": 18837,
  "ĠAbb": 8970,
  "ĠHudson": 16962,
  "Ġdesktop": 10460,
  "Ġindicates": 9666,
  "ĠAfter": 2353,
  "Gi": 30534,
  "sto": 31926,
  "0001": 31223,
  "ĠAlan": 10356,
  "Ġsurprising": 5558,
  "wheel": 22496,
  "Ġconfigure": 23247,
  "Pict": 20405,
  "Ġsixth": 9993,
  "ĠHistoric": 28074,
  "/": 15,
  "orge": 9004,
  "Ġreprodu": 8401,
  "Ġnumerical": 30179,
  "ulating": 7912,
  "Ġpractitioners": 23430,
  "List": 10565,
  "ĠUbuntu": 13445,
  "ĠSpo": 25124,
  "Ġembodied": 29971,
  "ĠHill": 2787,
  "Ġopting": 27900,
  "ology": 1343,
  "rim": 4691,
  "Ġassessments": 20621,
  "nan": 10954,
  "Ġwhale": 18369,
  "Ġcalm": 9499,
  "ĠGenesis": 21521,
  "turn": 21451,
  "Ġdat": 4964,
  "Ġ))": 25682,
  "Ġpoint": 900,
  "Ġcomple": 1229,
  "Ġcrystal": 16999,
  "Neil": 24500,
  "Ġglasses": 15011,
  "Ġpursuit": 12908,
  "Ġawa": 13276,
  "Ġconstruction": 4683,
  "Ġprocure": 22394,
  "Ġawake": 22699,
  "breaker": 27486,
  "ĠJPMorgan": 30630,
  "ĠHop": 9345,
  "udge": 12565,
  "Photos": 19929,
  "elia": 29783,
  "Ġorganize": 13926,
  "Ġsilently": 27012,
  "Ġlosers": 24068,
  "Ġtradem": 13772,
  "Whe": 10385,
  "Ġeventually": 3648,
  "zi": 14146,
  "Ġpossibility": 5185,
  "Ġpopped": 20753,
  "Mel": 19756,
  "ylan": 16344,
  "ĠPlans": 31531,
  "Ġintu": 13694,
  "ĠPer": 2696,
  "ĠTake": 7559,
  "Ġ./": 31564,
  "obby": 5162,
  "itutes": 15463,
  "Ġextend": 8402,
  "Bron": 16455,
  "ĠCapt": 9042,
  "PN": 13915,
  "Ġlanes": 12484,
  "Ġlocks": 19744,
  "Moreover": 20641,
  "Ġradio": 4474,
  "heads": 15652,
  "ĠKan": 16326,
  "99": 2989,
  "Ġsafeguards": 28085,
  "Ġkitchen": 9880,
  "ĠDemon": 29169,
  "ĠPhilippine": 23355,
  "ambers": 15728,
  "Ġcr": 950,
  "idis": 24431,
  "00": 407,
  "³": 112,
  "sa": 9916,
  "Ġincorporating": 26494,
  "Ġdiagnosis": 14230,
  "IN": 1932,
  "Ġunh": 13120,
  "ĠMes": 15561,
  "Ġdiagnostic": 26605,
  "ĠEmanuel": 22707,
  "ĠHeavy": 18700,
  "Ġlegislation": 4349,
  "Ġclin": 5360,
  "Ġcriticism": 5435,
  "cracy": 19313,
  "Ġwidespread": 8125,
  "ilant": 31964,
  "Ġslew": 23404,
  "Ġalthough": 3380,
  "Donald": 6438,
  "Ġstupid": 8384,
  "Ð¾Ð¼": 24671,
  "Ġsober": 21221,
  "Ġtwelve": 14926,
  "Ġmural": 31719,
  "Ġnose": 10272,
  "cross": 21167,
  "ĠHaw": 5557,
  "Ġworkplace": 13316,
  "ĠFreeman": 19709,
  "Ġcompet": 1946,
  "ĠAviation": 23698,
  "ĠHeck": 29515,
  "Ġ1200": 29020,
  "ury": 1453,
  "ming": 2066,
  "Los": 25871,
  "ĠTomorrow": 25264,
  "actively": 28443,
  "retched": 29393,
  "ĠBefore": 7696,
  "Ġtie": 9018,
  "ANN": 23983,
  "Ġjust": 584,
  "ĠFu": 19138,
  "Ġunderstandable": 18665,
  "cent": 977,
  "Ġconservatives": 8951,
  "ĠMond": 2589,
  "Ġevade": 29334,
  "ĠTuc": 27463,
  "Ġratings": 9258,
  "ĠIntroduction": 29696,
  "iq": 25215,
  "ĠPrison": 17859,
  "Ġensh": 31368,
  "Ġmole": 9185,
  "Ġoverwhelming": 8192,
  "ĠBoat": 31676,
  "Ġvain": 26487,
  "rared": 21832,
  ",âĢĻ": 5953,
  ":\\": 24815,
  "Ac": 14407,
  "âĢľ[": 24978,
  "Ġliable": 22228,
  "Coll": 23397,
  "Ġ1962": 17991,
  "Cam": 22587,
  "Ġfox": 23329,
  "Ġmandate": 11386,
  "ĠMission": 13148,
  "Ġnote": 3629,
  "ĠChes": 25577,
  "ĠJed": 16792,
  "ĠPict": 9784,
  "Ġov": 22951,
  "rastructure": 5130,
  "Ġindigenous": 13778,
  "Ġobsc": 9939,
  "****************": 15921,
  "Ġimmense": 12809,
  "Ġjustified": 13302,
  "ugar": 16718,
  "ĠFurther": 8184,
  "ĠIdent": 17066,
  "Ġcaptured": 7105,
  "iere": 10895,
  "ĠHave": 9332,
  "Ġintake": 14253,
  "Ġaggress": 4946,
  "Ġcared": 18531,
  "Ġalle": 28849,
  "Ġallot": 27641,
  "ĠPurple": 27046,
  "ĠDra": 15371,
  "Operation": 28913,
  "Linux": 28638,
  "ĠTillerson": 20404,
  "Ġcoh": 18966,
  "Ġjumping": 13488,
  "Ġcord": 15886,
  "Ġecosystems": 23708,
  "Ġcountryside": 21955,
  "prop": 22150,
  "Ġshot": 2579,
  "addafi": 17849,
  "ĠDoyle": 25994,
  "ĠMoroc": 20058,
  "Ġhorribly": 31338,
  "Ġpurpose": 4428,
  "gic": 24313,
  "ential": 1686,
  "Ġoff": 502,
  "Ġteachers": 6718,
  "ĠWhe": 6265,
  "Ġsun": 4506,
  "Ġconsistency": 14702,
  "Ġdumping": 25056,
  "ĠUnderground": 23445,
  "Ġrepeated": 4551,
  "Ġprotective": 14928,
  "Ġopponents": 6686,
  "Ġmana": 17699,
  "ĠIron": 10054,
  "ouses": 11327,
  "Ġmerchandise": 20406,
  "ĠPOW": 28796,
  "ĠYard": 26997,
  "Ġvib": 14825,
  "Ġrepeating": 18411,
  "ĠWebsite": 17930,
  "Ġpediatric": 29105,
  "Ġinformative": 30123,
  "Ġvintage": 20167,
  "ossible": 4661,
  "Ġforeign": 2752,
  "Ġthinks": 6054,
  "Ġext": 1033,
  "ĠGolf": 22684,
  "ĠGive": 15830,
  "Ġunderstands": 12282,
  "ĠLang": 15095,
  "mith": 24118,
  "lying": 3214,
  "Ġwrist": 15895,
  "Ġfossil": 9782,
  "Ġallowing": 4648,
  "Need": 25331,
  "Ġloyal": 8081,
  "Ġgap": 6834,
  "Ġshowed": 3282,
  "ĠMake": 8439,
  "ĠPokÃ©mon": 14352,
  "ĠGen": 6016,
  "icially": 24110,
  "Custom": 21213,
  "Ġplaced": 4711,
  "Image": 4504,
  "ymph": 24253,
  "Ġconsolid": 14034,
  "Ġstress": 5373,
  "Ġoverseas": 9312,
  "Ġrocky": 23748,
  "Ġscept": 24741,
  "ensen": 16757,
  "cr": 7477,
  "Ġwords": 2474,
  "ĠInnovation": 23632,
  "Ġtat": 13099,
  "Ġamend": 13541,
  "ĠNewtown": 29557,
  "Ġvic": 17864,
  "Sn": 21722,
  "Ġscient": 2567,
  "late": 21758,
  "annah": 25126,
  "ĠSprint": 19575,
  "ud": 428,
  "Download": 14767,
  "ĠMON": 30911,
  "ĠMTV": 23008,
  "ÑĤ": 5507,
  "Ġdescribes": 7623,
  "Ġarcade": 23776,
  "ĠOFF": 27040,
  "Ġspells": 14944,
  "Pal": 10837,
  "UL": 7702,
  "Ġinvolving": 6798,
  "athom": 29194,
  "ĠPap": 13014,
  "ĠChristians": 8040,
  "Ġmerchand": 18527,
  "ĠLast": 5194,
  "ĠNT": 27584,
  "Yes": 6103,
  "Ġ32": 5032,
  "plant": 16065,
  "Ġveto": 13921,
  "Ġshields": 25004,
  "Ġunderstand": 1718,
  "ĠChess": 31635,
  "ure": 458,
  "outhern": 4302,
  "Ġresurg": 24905,
  "ĠCha": 18950,
  "ĠMog": 28135,
  "Final": 20897,
  "Ġslept": 21093,
  "Ġlayoffs": 29350,
  "ulty": 10423,
  "ĠPrize": 13311,
  "Ġdemocratic": 8279,
  "Ġenjoyable": 19561,
  "ĠHun": 7162,
  "ĠYouth": 17014,
  "Ġ[...]": 27228,
  "correct": 30080,
  "Ġexplaining": 9965,
  "Ġattacking": 8399,
  "carbon": 24852,
  "ĠUSS": 22116,
  "Ġcomply": 13085,
  "ĠDuncan": 15974,
  "ĠMumbai": 16675,
  "Ġ2006": 4363,
  "Ġtransparency": 11160,
  "ĠLuther": 15442,
  "Ġprayers": 15493,
  "Ġdetect": 4246,
  "ang": 626,
  "Ġwhose": 2764,
  "Ġfiles": 4821,
  "SF": 20763,
  "Ġpyramid": 26158,
  "Ġmindfulness": 30731,
  "icer": 7206,
  "Ġfunctioning": 14800,
  "ĠUnit": 14183,
  "ĠPrim": 15170,
  "Ġmess": 2001,
  "Ġbiases": 25458,
  "St": 1552,
  "Import": 26734,
  "Ġsits": 10140,
  "Ġconfusing": 14450,
  "Ġweb": 3844,
  "pin": 11649,
  "comfort": 19583,
  "Ġsourced": 28191,
  "Ġwedd": 9182,
  "ĠMari": 26791,
  "ĠBuffett": 28306,
  "Ġrecycling": 21397,
  "Ġadministrations": 26573,
  "Ġmobility": 15144,
  "ship": 7219,
  "ĠTW": 20443,
  "Ġbrutally": 25738,
  "leveland": 8332,
  "Ġ1981": 13705,
  "igans": 31279,
  "Ġspam": 18783,
  "fil": 13383,
  "goers": 24159,
  "second": 13100,
  "father": 10583,
  "uffled": 29678,
  "ĠSquadron": 30318,
  "Ġmastery": 31064,
  "Ġcomment": 2573,
  "Ġnotifications": 19267,
  "Ġbumper": 30020,
  "Ġlearnt": 24818,
  "Ġsensation": 19065,
  "obic": 21356,
  "Ġbought": 5480,
  "Ġhear": 3131,
  "ĠSketch": 25404,
  "Therefore": 26748,
  "opez": 17410,
  "Ġhilarious": 18470,
  "Ġassum": 4315,
  "Ġsideline": 24091,
  "aware": 8920,
  "amic": 21094,
  "nm": 26212,
  "Ġain": 18405,
  "Ġactor": 7177,
  "ĠSimilarly": 14980,
  "ĠMerkel": 13259,
  "Ġ200": 829,
  "Ġmaturity": 24119,
  "ĠEyes": 25889,
  "rone": 15169,
  "bsite": 14759,
  "published": 27281,
  "ortmund": 24914,
  "Ġbeds": 19550,
  "ĠGem": 21776,
  "ĠAlcohol": 26183,
  "Ġguiding": 23704,
  "Ġfinished": 4841,
  "ĠOl": 7877,
  "Ġcolours": 18970,
  "Ġdefects": 23864,
  ".),": 11998,
  "ĠRobot": 25864,
  "manuel": 14606,
  "ĠTherefore": 10129,
  "Ġharassed": 22882,
  "Ġdocumented": 11446,
  "Ġwitness": 4697,
  "Ġperfect": 2931,
  "Ġstaffing": 30353,
  "Ġyog": 27885,
  "poon": 28265,
  "Ġraping": 29579,
  "ĠLinux": 7487,
  "orsche": 21297,
  "ãģĭ": 24764,
  "aky": 15019,
  "Ġtalented": 10127,
  "lad": 8172,
  "Ġnowadays": 23280,
  "umbs": 21580,
  "Ġcash": 4589,
  "Ġmosquito": 29801,
  "ĠMarlins": 28843,
  "cy": 926,
  "Ġmistakenly": 28360,
  "course": 19856,
  "Ġstreng": 3661,
  "Ġknowing": 6692,
  "Ġbourgeois": 19847,
  "inite": 11209,
  "ĠMUST": 18479,
  "ĠBulgar": 23199,
  "Ġep": 2403,
  "first": 11268,
  "148": 29809,
  "Ġincompetent": 28956,
  "ĠSaw": 20647,
  "sec": 2213,
  "ĠShut": 22320,
  "Ġdystop": 30182,
  "Ġpartner": 4870,
  "ĠMean": 8659,
  "much": 25936,
  "Ġturnout": 16667,
  "ĠPowell": 16520,
  "rimination": 6997,
  "ild": 651,
  "ĠTan": 11636,
  "University": 21236,
  "racted": 19119,
  "Ġpuppy": 28564,
  "Ġprescribed": 19231,
  "Ġelite": 7494,
  "ĠRig": 27869,
  "Ġ28": 3324,
  "ĠIts": 6281,
  "elta": 13186,
  "ĠOval": 21318,
  "ĠShakespeare": 18545,
  "itzer": 18154,
  "Ġhots": 28585,
  "Ġsales": 3741,
  "Ġreacted": 19114,
  "Ġsevent": 9408,
  "Ġunreasonable": 23475,
  "Ġvibr": 13483,
  "Ø§ÙĦ": 19941,
  "2000": 14107,
  "Ġtransmit": 15847,
  "Media": 11895,
  "Ġspit": 27011,
  "amph": 26150,
  "ÃĥÃĤÃĥÃĤ": 7020,
  "ĠAdelaide": 20752,
  "Ġdedicated": 6608,
  "Ġorchestra": 31081,
  "Ġdrove": 9078,
  "Ġsmuggling": 23340,
  "Ġdefend": 4184,
  "akistan": 4579,
  "Ġlasting": 14520,
  "Ġdegrees": 7432,
  "Ġretailers": 13138,
  "ĠAfrican": 4705,
  "ĠStur": 22957,
  "40": 2800,
  "Ġprescrib": 23635,
  "ĠLau": 28487,
  "ĠâĢ¢": 8876,
  "Ġlending": 16596,
  "Ġart": 1159,
  "ber": 474,
  "whel": 6183,
  "Ġunlock": 15650,
  "ĠReader": 24516,
  "Ġomitted": 27930,
  "ĠnaÃ¯": 31989,
  "aint": 3602,
  "ruption": 5596,
  "osaur": 16992,
  "Ġcope": 16646,
  "ĠAqu": 14161,
  "itational": 18963,
  "Ġ122": 27600,
  "Ġwreckage": 30555,
  "Ġuphe": 30793,
  "Ġmu": 30482,
  "Ġfixture": 23975,
  "Ġgrand": 4013,
  "whe": 12503,
  "Ġmanufacturer": 12447,
  "sold": 24471,
  "iving": 1335,
  "Ġendlessly": 29714,
  "Ġstun": 12290,
  "ĠRou": 10720,
  "Ġsleeves": 29891,
  "Ġnaked": 12609,
  "Ġpassive": 15536,
  "ĠMarie": 18851,
  "Ġeducational": 9752,
  "Ġoverlook": 13699,
  "ative": 815,
  "icia": 29526,
  "Ġpostp": 17977,
  "ĠLeafs": 18109,
  "Ġpostseason": 17022,
  "Ġenrolled": 18766,
  "falls": 20838,
  "Ġorganizations": 4995,
  "ĠCath": 5327,
  "ĠListen": 23010,
  "Ġjudge": 4129,
  "ifference": 26115,
  "All": 3446,
  "ĠTorah": 30286,
  "Ġpossibly": 5094,
  "Ġwelcoming": 19059,
  "Ġfeelings": 7668,
  "Ġgarlic": 19452,
  "MR": 22661,
  "Ġpair": 5061,
  "Ġempire": 12790,
  "Ġbl": 677,
  "Ġpresses": 31740,
  "tre": 24790,
  "ĠZionist": 23446,
  "China": 11556,
  "ĠAdam": 7240,
  "Ġinfringe": 16607,
  "Ġscattered": 16945,
  "ĠGriff": 10945,
  "title": 17371,
  "Ġprominence": 24293,
  "September": 19508,
  "Ġveget": 7731,
  "Ġwh": 301,
  "Film": 29837,
  "Ġrestricted": 11637,
  "Ġparticip": 2791,
  "ateful": 10874,
  "Ġstumble": 31408,
  "ĠManila": 24729,
  "Fortunately": 26058,
  "ĠTong": 28938,
  "Ġcloud": 5778,
  "Ġeligible": 9753,
  "Ġoct": 19259,
  "Ġconsiderably": 14529,
  "ident": 620,
  "Ġanywhere": 6306,
  "ized": 1126,
  "ĠJeb": 19617,
  "Ġresear": 24108,
  "Request": 28219,
  "Ġresidential": 11480,
  "Ġquick": 1984,
  "Ġmerged": 22031,
  "Ġadmire": 18360,
  "Ġhalt": 14133,
  "ographical": 16533,
  "Ok": 19020,
  "IAN": 24515,
  "Ġexecutive": 3649,
  "ĠTrend": 23554,
  "Ġstudio": 6633,
  "eared": 3128,
  "ĠThings": 11023,
  "Ġscreenshots": 22358,
  "ĠReturns": 29889,
  "ceptive": 23857,
  "astings": 26879,
  "Ġcooldown": 31277,
  "querque": 29885,
  "Ġenterprise": 12056,
  "mobile": 27243,
  "Ġcontradictory": 25793,
  "Ġnice": 3724,
  "Ġcrowdfunding": 26335,
  "ĠAustralians": 18585,
  "ow": 282,
  "ĠWit": 21475,
  "Ġlieutenant": 24862,
  "Ġcomplex": 3428,
  "Ġoptimization": 23618,
  "Ġbooming": 24762,
  "Ġdarker": 18555,
  "Ġimply": 19459,
  "eight": 24544,
  "Ġcompelled": 19167,
  "Ġcrank": 29752,
  "Ġpossessions": 20816,
  "connect": 12291,
  "Ġpot": 1629,
  "145": 26324,
  "Overall": 15885,
  "IR": 6422,
  "Ġmonster": 10597,
  "imates": 27226,
  "iar": 11224,
  "Ġpodium": 21046,
  "Coin": 26877,
  "Ġlegit": 5942,
  "orian": 20586,
  "Ġhit": 1896,
  "Ġ1918": 24267,
  "Ġcompetition": 4516,
  "Ġ{": 2413,
  "Ġfairly": 6275,
  "uthor": 1440,
  "Ġalternative": 5105,
  "Ġrecognizable": 25995,
  "ÏĤ": 24972,
  "ÃŃ": 6059,
  "Ġsucc": 16737,
  "ĠMacBook": 25856,
  "Ġisolation": 13336,
  "ĠOhio": 5767,
  "esteem": 28549,
  "Ġbeg": 4025,
  "ĠChase": 15970,
  "Ġcontrol": 1637,
  "ARA": 30565,
  "Ġdeeds": 27497,
  "Ġcolony": 17231,
  "ĠEld": 23419,
  "Ġsulf": 23494,
  "Ġblame": 6818,
  "ĠAtlant": 5093,
  "It": 893,
  "orage": 5334,
  "Ġworried": 6892,
  "Ġapproximately": 6822,
  "ĠKi": 17382,
  "Ġpersonality": 8671,
  "tles": 29138,
  "ĠGren": 23834,
  "Ġtimet": 28976,
  "Ġstructured": 19341,
  "Ġgroom": 21448,
  "Ġquestions": 2582,
  "Ġtroop": 27267,
  "process": 18187,
  "Ġawarded": 9544,
  "Ġpossession": 7595,
  "Ġbubbles": 23474,
  "ardon": 19615,
  "icates": 19932,
  "umbles": 23791,
  "Ġsimulate": 27113,
  "Ġduring": 1064,
  "Ġreduction": 7964,
  "ĠPad": 14685,
  "Ly": 31276,
  "Ġonion": 22804,
  "Ġdisrupting": 30573,
  "Ġtune": 12431,
  "Ġequally": 8124,
  "Ġtrigger": 9105,
  "Ġaspiring": 26471,
  "ĠNissan": 23608,
  "Early": 14663,
  "estern": 2924,
  "Ġborders": 9515,
  "MT": 25767,
  "Ġwhile": 911,
  "ĠEc": 13771,
  "Ġofficer": 3467,
  "Ġsalvage": 31668,
  "Ġroster": 7352,
  "Ġinformal": 19145,
  "Ġtrack": 2387,
  "sterdam": 20468,
  "Ġmature": 14632,
  "bral": 25667,
  "Ġdiscriminate": 24832,
  "Ġthousand": 7710,
  "Ġrele": 1149,
  "ĠTheater": 19557,
  "ĠWith": 2135,
  "ĠBag": 22114,
  "Ġquant": 5734,
  "ĠRove": 28788,
  "Ġviolates": 20791,
  "Ġimplications": 9604,
  "helsea": 8871,
  "create": 21032,
  "ĠWinter": 11395,
  "Ġagendas": 29600,
  "Ġlanguages": 7954,
  "Ġchips": 11108,
  "Ġterm": 3267,
  "lied": 11527,
  "ĠDream": 10694,
  "ĠBeirut": 30963,
  "Ġ].": 29477,
  "hm": 22267,
  "monton": 15386,
  "Ġlays": 24410,
  "cue": 19171,
  "Ġforc": 22869,
  "Ġjun": 30301,
  "sell": 7216,
  "roup": 910,
  "Ġresentment": 24533,
  "Ġcommanded": 24986,
  "Ġcompensate": 20440,
  "ĠBrigade": 23470,
  "entry": 18232,
  "Originally": 23432,
  "Ġdelivering": 11827,
  "Ġseized": 10218,
  "ebus": 25966,
  "Ġanalogy": 21327,
  "Ġpays": 12442,
  "ĠFruit": 31986,
  "DT": 26936,
  "ĠPelosi": 19075,
  "moil": 20554,
  "Ġpublishers": 14205,
  "lling": 2009,
  "ĠLA": 8906,
  "Ġhatch": 26232,
  "not": 1766,
  "ĠDu": 10999,
  "Model": 24811,
  "Â°": 9120,
  "ver": 288,
  "Ġpray": 15296,
  "ursday": 2779,
  "umption": 27417,
  "ĠJavaScript": 10451,
  "Ġroles": 7938,
  "Peter": 17470,
  "DM": 23845,
  "OH": 16778,
  "CD": 10486,
  "Ġrecounted": 27066,
  "iverpool": 8562,
  "Ġpassenger": 10765,
  "ĠNotice": 23206,
  "uggish": 31209,
  "Ġsetback": 24897,
  "Ġproves": 15631,
  "matic": 12219,
  "ĠCele": 19415,
  "Ġsolo": 10915,
  "elling": 15673,
  "Ġ1977": 14934,
  "Ġpeople": 576,
  "NE": 16495,
  "Ġjoining": 8242,
  "ĠFoundation": 5138,
  "Ġjournalism": 10575,
  "Ġother": 537,
  "Pan": 21653,
  "Ġecl": 17442,
  "ĠPresidential": 16167,
  "emon": 22900,
  "Ġcurric": 15971,
  "ĠMobile": 12514,
  "Ġstove": 30279,
  "2005": 19035,
  "Ġthro": 11893,
  "ad": 281,
  "East": 23799,
  "Ġsup": 7732,
  "ĠNPC": 22330,
  "ascript": 17706,
  "ĠEll": 6566,
  "ĠChristian": 3795,
  "either": 31890,
  "Ġwithin": 1696,
  "mining": 17578,
  "Ã¢": 9881,
  "ĠCommerce": 14724,
  "lt": 2388,
  "Ġimpending": 22520,
  "Ġvictories": 14704,
  "hearted": 18093,
  "igating": 26025,
  "Ġnutrient": 29794,
  "ĠDeV": 23338,
  "ĠDerek": 17903,
  "ĠMao": 20099,
  "Sat": 24093,
  "Ġself": 2176,
  "merce": 10758,
  "Ġseas": 19027,
  "Ġcurse": 21113,
  "files": 26314,
  "Ġrestruct": 22295,
  "Ġtransf": 13601,
  "ĠGOP": 4745,
  "mon": 2713,
  "ination": 1858,
  "Ġuncomfort": 11167,
  "ĠPackers": 14784,
  "Ġtornado": 27041,
  "February": 21481,
  "gether": 1859,
  "ĠSex": 11845,
  "ĠNight": 7002,
  "ãģ": 2630,
  "Ġindiscrimin": 30195,
  "ĠChristine": 23001,
  "Ġembracing": 20849,
  "Ġseconds": 5038,
  "ĠAL": 6621,
  "ĠBayern": 21764,
  "ĠMichel": 9978,
  "ĠCentury": 12581,
  "wiki": 26100,
  "ĠONLY": 31324,
  "Ġagreement": 4037,
  "ĠVentures": 31402,
  "hement": 29070,
  "Ġimper": 7309,
  "Ġprogressively": 31978,
  "Ġimplicated": 25170,
  "Android": 26438,
  "Ġnature": 3571,
  "Ġbetting": 20096,
  "ĠSimpsons": 29127,
  "TER": 9713,
  "ĠQ": 1387,
  "Ġmilestone": 19356,
  "ĠScript": 18653,
  "Ġcontrary": 10667,
  "Ġcorpor": 3449,
  "Ġconsciously": 27373,
  "ĠFran": 15031,
  "Ġscant": 30554,
  "ulture": 6787,
  "ĠRod": 6022,
  "ĠUsing": 10019,
  "ĠThreat": 24644,
  "Ġstance": 9956,
  "ilogy": 18523,
  "caps": 25134,
  "ĠOC": 24917,
  "Word": 30854,
  "yrr": 24436,
  "Ġguise": 29295,
  "ĠAut": 6511,
  "pack": 10181,
  "Ġdil": 11992,
  "Ġnonpartisan": 31638,
  "ĠSang": 31273,
  "Ġspeech": 3403,
  "ausible": 15362,
  "Ġperformers": 19624,
  "ribly": 15474,
  "Ġcarn": 17293,
  "ĠSign": 6077,
  "Ġregions": 6974,
  "Ġfiscal": 8252,
  "ĠKirk": 12691,
  "Ġgotten": 7062,
  "justice": 28339,
  "istance": 11140,
  "inating": 9180,
  "Show": 19435,
  "ĠPy": 6687,
  "ĠGlen": 18858,
  "Ġinfluence": 4132,
  "ĠJournal": 5381,
  "Tele": 27502,
  "Ġshelves": 18024,
  "Ġavoided": 12743,
  "ð": 171,
  "Ġperfectly": 7147,
  "ĠSEO": 31134,
  "ĠDRM": 31706,
  "Ġsentences": 12388,
  "Ġtransitions": 24687,
  "Ġbring": 2024,
  "jay": 30582,
  "Ġtests": 5132,
  "pdf": 15326,
  "Ġpneumonia": 30810,
  "Ġpaste": 18229,
  "____": 2408,
  "without": 19592,
  "Ġwallets": 25487,
  "Ġ650": 25835,
  "Ġtactic": 15724,
  "Ġworker": 7562,
  "ifted": 20509,
  "ĠREUTERS": 13118,
  "Ġcomparison": 7025,
  "andi": 28646,
  "Ġbound": 5588,
  "Ġduel": 27383,
  "author": 9690,
  "Ġguides": 18435,
  "?).": 27377,
  "Ġbilled": 26613,
  "Three": 11092,
  "urrection": 27988,
  "Ġadm": 6432,
  "Ġconservative": 4478,
  "Ġengage": 7138,
  "nsic": 18020,
  "ĠLok": 23878,
  "Ġlavish": 31528,
  "Ġmicrobes": 27389,
  "ĠGRE": 25959,
  "Ġresearcher": 10859,
  "ĠThere": 1299,
  "Ġmay": 767,
  "src": 20918,
  "ĠAbsolutely": 25432,
  "ĠLikewise": 21614,
  "ĠBulgaria": 24851,
  "Ġfelt": 2835,
  "ĠWellington": 25771,
  "Ġfans": 2646,
  "Ġseemed": 3817,
  "Ġpredator": 26847,
  "Ġhassle": 31367,
  "Ġnominee": 7990,
  "Ġcomfortable": 6558,
  "ĠCities": 20141,
  "Ġstandings": 25173,
  "Ġinterstate": 31123,
  "Ġleadership": 4436,
  "stant": 22959,
  "Ġrating": 7454,
  "Ġventure": 10984,
  "ĠAllison": 28903,
  "ĠMali": 25407,
  "pent": 24778,
  "Ġfire": 2115,
  "uation": 2172,
  "Ġconverting": 21673,
  "harm": 27530,
  "ĠPaste": 30767,
  "Ġdemonstrate": 9494,
  "up": 856,
  "ĠFed": 8063,
  "Ġoxide": 30569,
  "Ġstorytelling": 19275,
  "Table": 16313,
  "ĠHopkins": 17983,
  "azers": 25454,
  "ĠEnt": 11718,
  "berries": 23411,
  "Ġlimiting": 14184,
  "Ġcommitting": 15245,
  "Please": 8749,
  "Ġfrontier": 23680,
  "Ġpoorest": 21191,
  "cano": 21877,
  "ĠPru": 27290,
  "Å£": 25660,
  "Ġirrelevant": 16382,
  "mers": 9300,
  "wid": 12210,
  "wig": 24710,
  "urning": 2971,
  "ache": 5751,
  "Ġ1988": 11573,
  "ĠHA": 18091,
  "ĠWard": 11930,
  "Ġincre": 1216,
  "Ġcommentator": 21568,
  "Ġpopping": 22780,
  "Ġcirc": 2447,
  "âĹı": 31146,
  "Ġnon": 1742,
  "lar": 19131,
  "Ġrecip": 7706,
  "tick": 26159,
  "SW": 20457,
  "ĠJoseph": 7316,
  "Ġregulations": 6360,
  "Ġampl": 13194,
  "ĠBible": 9174,
  "ĠLeeds": 23127,
  "Ġideological": 12441,
  "Ġsue": 17045,
  "Ġchildhood": 9276,
  "Ġretained": 16398,
  "rights": 21313,
  "ĠClear": 20121,
  "icular": 22624,
  "vers": 639,
  "ĠPaper": 18301,
  "kan": 24651,
  "Ġhill": 13182,
  "'t": 655,
  "Ġensemble": 28699,
  "ĠElectric": 14778,
  "Ġimplicit": 16329,
  "Ġlion": 17959,
  "ĠNevada": 10531,
  "Drive": 28236,
  "Ġpoured": 18097,
  "ĠMul": 15284,
  "Ġ1967": 13848,
  "Ġinfection": 11124,
  "ĠPhillies": 27528,
  "chel": 26995,
  "lo": 5021,
  "Ġcheek": 21052,
  "istics": 4434,
  "Ġgauge": 19156,
  "Ġtailored": 25990,
  "PORT": 26182,
  "Ġrecons": 20156,
  "terror": 10979,
  "inary": 3330,
  "Ġghost": 11785,
  "Ġbuses": 14093,
  "Ġsolic": 19545,
  "Ġincoming": 14723,
  "14": 2067,
  "Ġdele": 27224,
  "Ġnoble": 17918,
  "Ġbeating": 9964,
  "Ġobserved": 6703,
  "pat": 8133,
  "isitions": 26755,
  "Ġblu": 18561,
  "Ġcrawl": 27795,
  "ĠAnything": 21334,
  "Ġunveil": 31894,
  "ops": 2690,
  "Ġdescended": 22543,
  "less": 1220,
  "ĠSocial": 5337,
  "Ġcosts": 3291,
  "Ġforced": 3609,
  "Ġupside": 15132,
  "Last": 5029,
  "Ġresources": 3839,
  "ĠBBC": 5667,
  "ĠUncle": 24761,
  "Ġfaulty": 28181,
  "Ġseismic": 31260,
  "Ġcargo": 14833,
  "Ġsides": 4985,
  "FS": 11920,
  "Ġcouncils": 21569,
  "Ġconsequ": 4638,
  "Ġcombinations": 18431,
  "Ġhumiliation": 28942,
  "Ġliquor": 18446,
  "ĠQueensland": 15967,
  "rown": 2772,
  "Ros": 31344,
  "Ġdinosaur": 25156,
  "Ġrather": 1978,
  "Ġcheer": 13142,
  "Ġfactor": 5683,
  "bled": 19732,
  "Ġguts": 27966,
  "HR": 20132,
  "Ġcue": 26788,
  "Ġpartners": 4280,
  "ĠGalile": 28706,
  "Ġgreeting": 31962,
  "ĠDav": 2193,
  "cont": 4139,
  "Ġ37": 6350,
  "ĠDist": 4394,
  "Ġtraditionally": 12921,
  "Ġinspection": 16777,
  "Ġsurv": 3243,
  "Ġagainst": 891,
  "ĠWallace": 14381,
  "ĠPlanned": 14288,
  "Ġanarch": 12255,
  "ĠMinister": 3441,
  "UC": 10710,
  "ĠMap": 11138,
  "iley": 8948,
  ".'âĢĿ": 30307,
  "Ġles": 8856,
  "sylv": 7969,
  "Ġabducted": 30016,
  "Ġdoomed": 20729,
  "ric": 1104,
  "Ġdense": 14919,
  "Ġguy": 3193,
  "Analy": 29595,
  "ĠPorter": 17644,
  "ĠRenaissance": 25840,
  "Ġpoll": 2907,
  "Ġlap": 14096,
  "Ġports": 14340,
  "plates": 20359,
  "Ġcaliber": 26923,
  ".(": 19086,
  "ĠLooking": 16745,
  "Hall": 27492,
  "Ġbro": 1281,
  "wik": 25103,
  "Ġhorm": 12731,
  "AND": 9059,
  "DC": 11494,
  "ĠKate": 15765,
  "Ġvictims": 4407,
  "Ġincremental": 26776,
  "ĠAFP": 11592,
  "obe": 5663,
  "Ġquir": 23106,
  "Ġliving": 2658,
  "ĠOpen": 5415,
  "ĠHayden": 28670,
  "ructure": 2873,
  "Ġnearing": 30715,
  "Ġrotate": 24450,
  "ĠWithout": 8817,
  "ocamp": 25761,
  "Ġserial": 12460,
  "Ġsubstant": 5834,
  "Does": 14265,
  "ĠCollins": 11769,
  "oker": 10598,
  "ĠUnknown": 23761,
  "Ġcollision": 16500,
  "Ġfraught": 31632,
  "Pat": 11818,
  "RL": 9043,
  "ĠRings": 27128,
  "ĠN": 367,
  "Ġstuffed": 21394,
  "rest": 875,
  "ĠLebanon": 13624,
  "ĠAC": 8837,
  "Ġmarital": 31217,
  "Ġdegree": 5089,
  "Ġ1963": 17254,
  "onomy": 30147,
  "Ã³n": 10664,
  "Ġflatten": 28731,
  "Ġdunk": 30559,
  "Ġbacter": 8763,
  "ength": 3922,
  "Ġsimple": 2802,
  "Ġboycot": 28798,
  "Ġreorgan": 30815,
  "Ġrus": 7350,
  "ĠCedar": 31783,
  "Ġlover": 19667,
  "ĠElectronic": 19963,
  "Welcome": 18583,
  "75": 4416,
  "ĠHob": 18623,
  "Ġwell": 822,
  "ĠSha": 19273,
  "Ġstrict": 7701,
  "Ġcoating": 30733,
  "Ġclosed": 4562,
  "ĠMold": 30224,
  "Ġstereoty": 26176,
  "Sar": 20403,
  "wald": 19123,
  "ruction": 2788,
  "ĠSept": 8360,
  "ace": 517,
  "ĠÐ´": 22786,
  "pg": 10044,
  "enna": 12952,
  "Ġcentres": 16540,
  "ĠTruman": 27902,
  "ĠDob": 25985,
  "ĠLocke": 31005,
  "Ġwom": 1046,
  "Ġgenerates": 17651,
  "^^": 26686,
  "ĠEssex": 31554,
  "eor": 12897,
  "Ġpopul": 12335,
  "Ġinflu": 2740,
  "Ġexpire": 23306,
  "osis": 6927,
  "ĠMorales": 28944,
  "+,": 29768,
  "ĠLucy": 24212,
  "Ġgamble": 26531,
  "ough": 563,
  "Ġheadaches": 27100,
  "Ġmelted": 24390,
  "ĠRoom": 13176,
  "ambled": 26696,
  "ĠSecurities": 24028,
  "enzie": 22256,
  "ĠDee": 28305,
  "lves": 28021,
  "Ġworries": 15548,
  "hin": 25094,
  "assion": 11278,
  "Ġdoom": 25688,
  "Type": 13456,
  "Ġnumber": 1243,
  "Ġprioritize": 27315,
  "Ġunnecess": 10935,
  "uk": 3001,
  "ĠVegas": 8417,
  "Ġtrib": 6211,
  "Ġfatally": 23762,
  "olk": 12919,
  "Ġch": 399,
  "ĠFROM": 19820,
  "Ġancest": 10551,
  "aped": 5754,
  "ĠFall": 9461,
  "ĠDeutsche": 28883,
  "expl": 21392,
  "Ġgoing": 879,
  "ĠMc": 1593,
  "OA": 26051,
  "Hand": 18728,
  "ĠTrinity": 23555,
  "ĠKathleen": 25635,
  "Ġattempting": 8409,
  "One": 2790,
  "amer": 2141,
  "Ġmidst": 14383,
  "allow": 15664,
  "oding": 8324,
  "ultane": 9122,
  "UR": 7088,
  "ĠUp": 3926,
  "anes": 6575,
  "ĠLebanese": 21187,
  "General": 13449,
  "hang": 31985,
  "Ġregardless": 7541,
  "Ġrobbery": 15936,
  "ĠLynn": 22042,
  "Ġtouch": 3541,
  "ving": 1011,
  "quirer": 31084,
  "Ä": 127,
  "Ġdismantle": 29596,
  "Ġcomplementary": 30170,
  "Ġplugins": 23483,
  "irlines": 15851,
  "{\"": 18526,
  "Ġ!=": 24976,
  "at": 223,
  "Ġcertain": 1661,
  "Ġaudio": 7406,
  "Ġescalated": 25983,
  "Ġscreen": 3173,
  "Ġharder": 6428,
  "Ġempowerment": 31921,
  "ĠMacron": 24067,
  "ruce": 24239,
  "Ġvo": 2966,
  "Ġtraditional": 3985,
  "Ġescal": 10059,
  "ĠPig": 27526,
  "inese": 3218,
  "Ġpits": 26546,
  "ares": 3666,
  "ĠBlock": 11830,
  "Ġaccomplish": 9061,
  "ĠAngular": 21434,
  "ĠStuart": 18658,
  "Ġmantra": 26525,
  "liers": 15863,
  "Ġdivorce": 13088,
  "ĠDeck": 25524,
  "Ġspiders": 28142,
  "Ġdrawn": 7129,
  "AL": 2901,
  "ĠCycl": 26404,
  "ĠKol": 24035,
  "Ġending": 7127,
  "Ġsave": 3852,
  "Ġstole": 16635,
  "GF": 26656,
  "ĠTs": 10806,
  "Ġsurvived": 10622,
  "Ġcomprehensive": 9472,
  "liament": 4130,
  "Ġmixture": 12841,
  "ĠFOR": 11603,
  "ek": 874,
  "Ġblogger": 17836,
  "ĠSand": 3268,
  "Med": 12295,
  "Ġfarms": 13246,
  "max": 16940,
  "ĠÙ": 16053,
  "Ġobject": 2392,
  "iam": 2996,
  "Ġenvelope": 22576,
  "ueller": 13310,
  "both": 16406,
  "ĠUniversal": 13622,
  "Ġtribes": 15398,
  "ĠTreasury": 10706,
  "Ab": 5348,
  "ĠSuzuki": 31915,
  "Ġbait": 26097,
  "Ġhabits": 12755,
  "ĠMcA": 27895,
  "ĠDE": 11343,
  "ĠDolphins": 17779,
  "Ġheartbreaking": 28904,
  "ĠTwo": 5131,
  "mate": 7913,
  "Ġslump": 29360,
  "sexual": 18382,
  "Ġthing": 1394,
  "Ġmainland": 18913,
  "rig": 4294,
  "Ġtropical": 17142,
  "Ford": 31186,
  "ĠRaleigh": 29057,
  "ĠSF": 15041,
  "Ġschools": 3637,
  "Ġexhibited": 23455,
  "Ġkings": 23126,
  "lock": 7287,
  "Del": 16991,
  "bishop": 22531,
  "Ġfreaking": 31865,
  "ĠJonathan": 9585,
  "Ġpretty": 2319,
  "Ġalumni": 25403,
  "Local": 18489,
  "members": 31065,
  "ĠMembers": 15417,
  "ĠXI": 28376,
  "Ġamazingly": 29509,
  "mite": 28862,
  "Ġcolumns": 16029,
  "enne": 28040,
  "ĠSpicer": 20645,
  "ĠFairfax": 25674,
  "Ġbecomes": 4303,
  "ĠShin": 16231,
  "Ġhers": 27320,
  "ĠIn": 526,
  "Ġattention": 2950,
  "Ġ92": 14988,
  "ĠCous": 22645,
  "ÑĤÐ¾": 21324,
  "Ġbreadth": 29436,
  "ĠLiberia": 29826,
  "Ġvitamins": 31929,
  "Ġiniti": 4742,
  "Ġcrashed": 13987,
  "ĠMahmoud": 26723,
  "Hay": 28080,
  "ĠTru": 15391,
  "ĠAustralia": 3761,
  "Ġmixing": 17033,
  "Ġpursued": 16842,
  "Ġprob": 1778,
  "Ġsound": 2181,
  "Ð½Ð¸": 24880,
  "ĠEarth": 3774,
  "Ġpolicing": 17172,
  "Ġclaim": 1399,
  "Ġmelody": 29545,
  "Ġrestrictions": 8030,
  "Ġdoesn": 1454,
  "fortunately": 6268,
  "Ġconcerts": 22339,
  "Authorities": 22184,
  "Ġcitizen": 8302,
  "ãģĵ": 30951,
  "ĠNYPD": 20312,
  "rade": 26754,
  "Ġfrightening": 20092,
  "Ġluxury": 11293,
  "iff": 694,
  "Ġcheat": 23262,
  "36": 4336,
  "Ġfolk": 13789,
  "usat": 26543,
  "ĠChanges": 24901,
  "Ġexplosives": 18939,
  "ises": 2726,
  "Ġrac": 3017,
  "Ġagreed": 4238,
  "polit": 26005,
  "icky": 19878,
  "ĠCase": 10457,
  "hing": 634,
  "Ġbounced": 27063,
  "oshi": 17602,
  "Ġinvoke": 25605,
  "ips": 2663,
  "amas": 15114,
  "Ġimprove": 2848,
  "ĠEconomist": 28970,
  "ĠOf": 3630,
  "Ġjustices": 21139,
  "ressed": 3681,
  "ĠFoley": 27312,
  "portion": 7903,
  "ĠProfessor": 8482,
  "acon": 8373,
  "ĠTian": 29828,
  "iber": 1784,
  "age": 461,
  "weet": 7836,
  "ĠPhill": 10178,
  "cock": 18370,
  "Breaking": 23810,
  "Ġdisturb": 9322,
  "Ġshrinking": 21558,
  "Ġinstrument": 8823,
  "oys": 19778,
  "berto": 26806,
  "ãĢģ": 16787,
  "eligible": 29432,
  "Ġguerr": 26334,
  "Ġstru": 2470,
  "ĠNarendra": 22149,
  "Ġhitters": 25375,
  "ĠNash": 11511,
  "Ġthis": 389,
  "Ġlamp": 23546,
  "TO": 10971,
  "Ġret": 1022,
  "Ġinspect": 9767,
  "Ġenormous": 8466,
  "Ġexpanding": 9818,
  "ĠMonst": 27050,
  "Ġconcentrated": 15807,
  "Ġbombard": 29651,
  "Anna": 27020,
  "ulars": 28784,
  "itive": 1732,
  "Ġ18": 1438,
  "Ġguided": 16497,
  "ĠMS": 7232,
  "ĠHM": 27425,
  "Ġfavored": 16560,
  "ÂŃ": 2878,
  "Ġformats": 18540,
  "impro": 28474,
  "import": 15299,
  "alle": 6735,
  "people": 13733,
  "bands": 21196,
  "ĠCance": 27681,
  "Ġlooked": 3244,
  "ĠHo": 8612,
  "Ġdiver": 12864,
  "ĠTriple": 18245,
  "ĠDion": 25107,
  "154": 31435,
  "played": 18348,
  "ĠSend": 20655,
  "Ġassembly": 10614,
  "app": 1284,
  "Austral": 16104,
  "ĠAld": 14408,
  "ĠAK": 17222,
  "Ġgast": 24317,
  "Ġsnake": 18674,
  "Chapter": 26819,
  "Ġtroll": 25372,
  "ĠIdentity": 29272,
  "Ġforce": 2584,
  "seat": 19359,
  "aque": 17760,
  "Ġembod": 19204,
  "ĠWords": 27860,
  "Ġdemands": 7303,
  "apy": 13990,
  "Ġbars": 8576,
  "Ġoverride": 23806,
  "Ġfats": 30708,
  "ĠVW": 31548,
  "Ġpossesses": 24407,
  "version": 11746,
  "Ġstamp": 10271,
  "Ġdownright": 26104,
  "ico": 3163,
  "ĠElder": 21308,
  "Ġisolated": 10448,
  "ĠMedia": 5826,
  "ĠRio": 12543,
  "Ġupstairs": 26705,
  "Ġoption": 3500,
  "Ġpriests": 18298,
  "ersion": 11899,
  "ĠStatus": 24404,
  "Ġelaborate": 14092,
  "des": 8638,
  "Ġreaff": 25132,
  "Opp": 21861,
  "Ġslipped": 17628,
  "Ġerosion": 24532,
  "armed": 11250,
  "Ġserving": 6647,
  "ĠTraditional": 29492,
  "ĠDiego": 7980,
  "Ġwall": 3583,
  "ĠOpp": 10846,
  "mber": 1621,
  "Ġclimb": 8067,
  "Ġboasts": 18325,
  "Ġdisturbance": 29567,
  "1998": 25710,
  "Ġexpon": 20351,
  "Ġcans": 21203,
  "Ġdistributor": 29304,
  "Ġarchae": 14387,
  "Ġcorrobor": 27299,
  "Ġexisting": 4445,
  "home": 13368,
  "city": 20812,
  "Ġcraw": 27590,
  "Ġgrap": 27605,
  "ĠMilan": 16577,
  "ickers": 20284,
  "Ġwest": 6824,
  "Ġturn": 1272,
  "tlet": 25255,
  "ĠBeer": 15700,
  "\"]": 20338,
  "ĠGross": 20564,
  "Ġallev": 20882,
  "Ġdecay": 21179,
  "atorial": 17796,
  "Ġtears": 11261,
  "Ġhusband": 4907,
  "Ġmega": 19883,
  "rupal": 31342,
  "Ġcongreg": 27293,
  "Ġtheme": 6911,
  "âĦ": 12247,
  "ĠArgent": 10386,
  "icians": 4253,
  "ĠLee": 5455,
  "ĠArchives": 23191,
  "Ġconsumed": 13729,
  "Ġtalent": 5969,
  "ĠTunisia": 25144,
  "bor": 2664,
  "edience": 22187,
  "126": 27250,
  "Ġmonsters": 13318,
  "Ġseparately": 15225,
  "Ġmug": 28003,
  "proclaimed": 31592,
  "Ġether": 30985,
  "take": 15721,
  "actic": 13944,
  "iration": 18288,
  "Ġinvading": 29711,
  "Ġpeace": 3792,
  "ĠMcCl": 21277,
  "Kevin": 20478,
  "Ġeuro": 8061,
  "Ġstood": 6187,
  "Like": 6669,
  "ĠDrive": 11648,
  "Ġtheft": 11148,
  ".âĢĻ": 4015,
  "Ġsibling": 31088,
  "Off": 7394,
  "Ġimproper": 18299,
  "Ġincreases": 6092,
  "DF": 21205,
  "Patrick": 27042,
  "ĠStat": 8626,
  "Ġany": 583,
  "Ġ36": 5804,
  "regon": 7192,
  "Ġcircle": 9448,
  "owl": 4881,
  "ĠKet": 27412,
  "arent": 1512,
  "ĠHamb": 22115,
  "Ġcivilizations": 31484,
  "Ġgreenhouse": 12680,
  "Ġnotify": 23908,
  "Ġdeserving": 29392,
  "Nearly": 22067,
  "living": 28091,
  "eri": 31245,
  "->": 9676,
  "Ġsupreme": 16878,
  "ĠMur": 5290,
  "Israel": 10468,
  "ocol": 5057,
  "Ġcourtesy": 10959,
  "ĠBelg": 9442,
  "arest": 13215,
  "Ġignor": 10963,
  "Turkey": 24522,
  "Ġenvoy": 29160,
  "Ġlaws": 2485,
  "Ġstar": 3052,
  "ĠManhattan": 10776,
  "65": 5191,
  "Ġheadphones": 22124,
  "Mond": 22685,
  "alled": 2995,
  "Ġchapter": 8533,
  "Ġthrive": 18389,
  "mons": 11346,
  "Fans": 29315,
  "Ġunjust": 19676,
  "Laughs": 27772,
  "International": 22834,
  "Ġfocused": 4854,
  "isexual": 18747,
  "Ġphen": 6174,
  "ylum": 9831,
  "Journal": 21953,
  "Ġtube": 14942,
  "Ġdeadly": 9340,
  "rap": 1344,
  "enc": 12891,
  "Ġcloses": 22488,
  "ĠWays": 28409,
  "arthed": 30752,
  "ĠDw": 16871,
  "ĠModi": 11281,
  "ĠGMT": 14394,
  "ĠVe": 5349,
  "Ġskepticism": 20070,
  "Ġolive": 20454,
  "Cong": 15428,
  "isation": 4767,
  "ĠTele": 9543,
  "Ġinterference": 13374,
  "ĠWestminster": 17568,
  "nothing": 24227,
  "demand": 24842,
  "ìĿ": 19663,
  "Currently": 18703,
  "ĠIran": 3140,
  "Ġelev": 7553,
  "ference": 4588,
  "ĠTokyo": 11342,
  "ankind": 29449,
  "Ġstations": 7636,
  "Ġfeminism": 16827,
  "ename": 22897,
  "Ġske": 6053,
  "John": 6963,
  "Ġwrong": 2429,
  "Mont": 22698,
  "maybe": 25459,
  "icorn": 26857,
  "Ġbitch": 24602,
  "OW": 5350,
  "ĠLinda": 20088,
  "Ġoversees": 24427,
  "ĠMarian": 31857,
  "Ġredd": 19761,
  "tab": 24176,
  "entially": 3194,
  "ĠSS": 8291,
  "Ġscenes": 7427,
  "Ġcompared": 3582,
  "ĠComcast": 17070,
  "Ġkilled": 2668,
  "ĠGOODMAN": 19662,
  "Ġvoice": 3908,
  "Ġjailed": 17475,
  "Ġhonest": 5119,
  "Ġfactual": 25823,
  "irect": 1036,
  "ĠIPA": 23500,
  "ww": 2118,
  "ĠScientists": 20071,
  "Ġdisgrace": 24338,
  "ĠPierre": 18042,
  "Ġmemoir": 22740,
  "1989": 29839,
  "Ġhappiness": 11941,
  "Ġjaw": 18857,
  "nesota": 7010,
  "gem": 18924,
  "Ġhasht": 16727,
  "izer": 9579,
  "Ġdoing": 1609,
  "pection": 16574,
  "ĠAllies": 31250,
  "Ġdiscontinued": 30974,
  "Ġglucose": 21821,
  "Ġru": 7389,
  "Ġsubscrib": 6188,
  "imer": 18771,
  "Ġvotes": 5115,
  "Robert": 16807,
  "ĠMormons": 29247,
  "Ġhot": 3016,
  "Ġlear": 1616,
  "Ġba": 27125,
  "ĠSalvador": 21465,
  "Ġsent": 1800,
  "itic": 31837,
  "Ġviewed": 8474,
  "ĠTypically": 28268,
  "rail": 29942,
  "Ġunrestricted": 30127,
  "new": 3525,
  "Ġpigs": 20678,
  "ĠVega": 31788,
  "ĠDevelopers": 30071,
  "ocated": 10692,
  "Ġwrote": 2114,
  "ĠLB": 23394,
  "ĠJews": 6149,
  "Ġcomposed": 12398,
  "HH": 23063,
  "ĠTob": 13503,
  "ust": 395,
  "ĠPur": 13091,
  "ĠTwilight": 23465,
  "cd": 15816,
  "Ġorganizers": 14579,
  "ĠOxford": 12144,
  "ĠCole": 10234,
  "ĠConsumer": 17533,
  "hus": 6620,
  "ĠGamer": 23386,
  "rators": 7860,
  "Ġapology": 13986,
  "Ġeverybody": 6088,
  "Ġbewild": 31904,
  "MM": 12348,
  "ĠHip": 27232,
  "ĠMAR": 22005,
  "Ġstill": 909,
  "acting": 25383,
  "iment": 2887,
  "ĠLund": 28199,
  "ĠBI": 27577,
  "Moore": 29571,
  "Ġtransfers": 16221,
  "Bo": 16396,
  "LL": 18868,
  "ĠFight": 16583,
  "antom": 17902,
  "afia": 20161,
  "Ġod": 14957,
  "ĠNik": 11562,
  "abit": 29223,
  "Ġexcellent": 6458,
  "Ġunderneath": 14672,
  "Ġembed": 10894,
  "Ġtorrent": 22058,
  "oln": 9925,
  "Ġlets": 8845,
  "ĠBetter": 14713,
  "Ġsemif": 24607,
  "ĠCody": 24839,
  "lla": 7561,
  "option": 26854,
  "Ġbird": 10647,
  "Ġdisrupted": 24291,
  "Ġglobal": 2689,
  "ĠNest": 21507,
  "ĠBroncos": 13923,
  "Ġhighlights": 9571,
  "arrison": 21461,
  "ĠHoney": 23175,
  "urer": 29636,
  "ĠCommittee": 4172,
  "Ġkeyboards": 28544,
  "Ġsophistic": 10686,
  "Ġcaste": 26394,
  "Ġsolitary": 22142,
  "Ġscor": 28380,
  "eway": 17726,
  "stage": 13486,
  "Ġavailability": 11657,
  "ĠTuesday": 2676,
  "imental": 16934,
  "Ġleap": 14654,
  "Ġaccordance": 16390,
  "secutors": 21409,
  "Ġembark": 17803,
  "Ġpathetic": 27762,
  "ĠCategory": 28797,
  "Ġwheat": 16862,
  "Ġcondoms": 31044,
  "counter": 22814,
  "alach": 28209,
  "ecause": 3021,
  "Ġgrave": 11940,
  "Ġused": 998,
  "Ġcass": 29688,
  "Ġcognition": 29228,
  "DE": 11641,
  "ĠSelect": 15446,
  "CL": 5578,
  "wer": 14081,
  "agan": 6369,
  "\\)": 29897,
  "medi": 2394,
  "Ġexternal": 8147,
  "arency": 10122,
  "ĠK": 483,
  "Ġoppress": 31359,
  "Ġprolonged": 19796,
  "PP": 8803,
  "Ġcance": 9088,
  "Ġhats": 21512,
  "ĠTerror": 14442,
  "Description": 24658,
  "ters": 844,
  "Ġappropriately": 19552,
  "Ġwidget": 31911,
  "ĠRol": 22038,
  "ĠTowers": 31047,
  "Ġbarn": 25514,
  "abytes": 31717,
  "icio": 31873,
  "ĠScarborough": 26657,
  "Ġexpressed": 5389,
  "ĠFellow": 26480,
  "ĠBroadcasting": 26689,
  "Ġpertaining": 28880,
  "Ġbelieves": 4677,
  "Ġh": 245,
  "Ġburdens": 24406,
  "Ġremoved": 4769,
  "Ġcarcin": 30162,
  "Ġoddly": 28322,
  "Ġundertaken": 20337,
  "scale": 8732,
  "ousing": 12901,
  "ĠReb": 19141,
  "ĠSolo": 23963,
  "ĠPlayers": 13241,
  "Ġeducate": 17582,
  "ĠTroy": 19448,
  "Ġarms": 5242,
  "ĠNepal": 21962,
  "ĠDaniel": 7061,
  "Ġexercised": 28468,
  "ABC": 20988,
  "ĠJr": 6742,
  "Your": 8863,
  "Ġanat": 19645,
  "Ġ1500": 23590,
  "Ġbackend": 28500,
  "Ġroyalty": 27374,
  "His": 5628,
  "ĠShow": 5652,
  "ĠAlabama": 7843,
  "Ġbully": 23758,
  "oufl": 27616,
  "Ġcoff": 5856,
  "ĠpH": 28951,
  "ĠChat": 28026,
  "iddles": 28361,
  "ĠRF": 20917,
  "Ġprizes": 20493,
  "offs": 11186,
  "ĠAirbnb": 28997,
  "Ġdeparture": 10995,
  "oster": 7021,
  "Using": 13226,
  "Less": 21229,
  "Ġrings": 14842,
  "Ġconjunction": 18697,
  "ĠBeautiful": 27223,
  "Ġflights": 10902,
  "ppy": 13351,
  "Ġscr": 5346,
  "Ġcarbohyd": 26642,
  "Ġemails": 5910,
  "Ġinvestor": 13593,
  "Ġly": 25100,
  "venue": 3641,
  "Ġsystematically": 22333,
  "ĠComm": 1923,
  "Ġintriguing": 16445,
  "Ġoutlet": 14898,
  "Ġcaffeine": 23729,
  "Ġluggage": 30023,
  "Ġtossed": 20848,
  "Ġdividend": 31369,
  "ĠHR": 15481,
  "ĠKorean": 6294,
  "aid": 1931,
  "Ġsmell": 9284,
  "ĠMost": 4047,
  "ĠCape": 14816,
  "top": 5261,
  "Û": 150,
  "Ġpsychopath": 29804,
  "ĠRobb": 26883,
  "Ġperks": 29064,
  "ottage": 29626,
  "Ġtransferred": 10974,
  "Ġcitizens": 3634,
  "ĠKot": 21249,
  "Connect": 21998,
  "Ġcooked": 17396,
  "Ġlayer": 8512,
  "Ġnarr": 6761,
  "Day": 13761,
  "ĠRugby": 20296,
  "Ġacres": 13534,
  "esome": 6075,
  "Ġcruel": 11948,
  "Ġquietly": 11781,
  "Reg": 10105,
  "Ġrealities": 18310,
  "ĠApollo": 18758,
  "ĠPut": 5259,
  "elsh": 17076,
  "ĠBuccane": 30635,
  "Ġerr": 20992,
  "Ġá": 21305,
  "Ġunity": 12877,
  "ĠPO": 22181,
  "ĠCaesar": 25061,
  "Ġrevealed": 4059,
  "ĠCousins": 25273,
  "ĠAdv": 9260,
  "oba": 17608,
  "wolf": 27095,
  "Ġsolemn": 31944,
  "Ġrise": 3910,
  "Former": 11066,
  "afety": 25831,
  "Ġwreck": 13942,
  "ĠChapman": 23321,
  "Ġcontest": 6286,
  "ious": 649,
  "neutral": 27905,
  "Ð¹": 20628,
  "Ġsalmon": 23075,
  "bernatorial": 31000,
  "Ġintensive": 17013,
  "ĠEden": 25530,
  "å®": 26067,
  "Before": 7847,
  "ĠLegend": 15349,
  "ĠSystem": 5828,
  "Ġdanger": 3300,
  "leading": 11127,
  "leck": 30190,
  "Ġimplementation": 7704,
  "Ġextortion": 31082,
  "ĠBuilding": 12437,
  "bling": 20408,
  "ĠT": 271,
  "Ġsleeping": 11630,
  "ĠChicago": 4101,
  "Ġu": 293,
  "Ġappreciated": 16844,
  "pos": 16401,
  "Ġcorpse": 24960,
  "Ġforbid": 30992,
  "Hen": 22533,
  "baum": 21504,
  "Ġdescribe": 6510,
  "Ġslee": 16222,
  "Ġoverhaul": 14707,
  "iii": 27717,
  "Ġheaven": 12370,
  "iture": 9883,
  "iddle": 2287,
  "ĠCharleston": 22823,
  "atell": 6455,
  "Ġwithout": 1231,
  "Ġframework": 8270,
  "Ö": 145,
  "Ġbipartisan": 15086,
  "itor": 3442,
  "Ġperiodic": 29464,
  "push": 29645,
  "Fix": 28186,
  "ĠHof": 30611,
  "Ġdom": 2299,
  "DO": 20660,
  "Ġmany": 774,
  "Ġfrost": 30378,
  "ayers": 6508,
  "ĠMom": 12814,
  "Clearly": 23901,
  "Ġtaxes": 5002,
  "ĠBuc": 19712,
  "estation": 31183,
  "Ġfavorites": 17061,
  "Ġpresidential": 3633,
  "Ġsuspend": 21197,
  "Ġramp": 8979,
  "ĠDespite": 7068,
  "anks": 2928,
  "ĠPoor": 23119,
  "Ġsurrender": 15747,
  "rs": 3749,
  "izes": 4669,
  "Â±": 27121,
  "Ġsees": 6413,
  "Ġal": 381,
  "Ġintensity": 12351,
  "Germany": 23267,
  "Ġexempt": 19671,
  "ĠGuy": 13134,
  "Ġdisaster": 7564,
  "Ġ57": 10210,
  "ĠDr": 2458,
  "phis": 17170,
  "Ġfoc": 1868,
  "ĠChange": 10771,
  "Rel": 6887,
  "Ġproving": 15279,
  "ĠFukushima": 23478,
  "Ġmedicine": 8523,
  "âĢĿ;": 19591,
  "Co": 7733,
  "ĠTaliban": 10741,
  "ĠAfrica": 4696,
  "Ġreligions": 16511,
  "Ġcelebrations": 21044,
  "appa": 25296,
  "Ġupward": 18059,
  "rily": 29527,
  "ĠSo": 1427,
  "Ġattending": 10718,
  "Ġhast": 29802,
  "Additionally": 20100,
  "Ġtranscripts": 27544,
  "Ġheavily": 6273,
  "Ġsingle": 1976,
  "Ġamusing": 26603,
  "Ġï¿½": 21781,
  "Sh": 2881,
  "Ġrecurring": 21536,
  "ĠIE": 27258,
  "ĠLevi": 26347,
  "ĠTul": 29660,
  "Ġscholarship": 16721,
  "Ġaccordingly": 16951,
  "Ġ550": 29555,
  "Ġcapped": 24372,
  "ĠAssociate": 26931,
  "Ġpolls": 7032,
  "72": 8621,
  "ĠÂ§": 21612,
  "frame": 15200,
  "Ġhurts": 18799,
  "ĠLo": 8011,
  "Ġdivid": 13702,
  "ĠSac": 11618,
  "meg": 26260,
  "Ġprecautions": 31655,
  "ãģĹ": 18727,
  "ĠUg": 19754,
  "Ġconsisted": 17783,
  "rae": 23990,
  "ĠArmen": 13799,
  "Ġla": 1614,
  "ographically": 28597,
  "Jac": 25632,
  "Ġcom": 344,
  "d": 68,
  "Ġcheering": 24136,
  "Ġopens": 9671,
  "ĠDi": 6626,
  "Ġdividends": 25500,
  "invest": 20808,
  "ĠU": 440,
  "Ġsparked": 12826,
  "Ġleave": 2636,
  "Ġcoming": 2069,
  "ĠBennett": 14582,
  "war": 5366,
  "Ġunres": 31696,
  "atively": 9915,
  "Ġmonth": 1069,
  "ĠNOW": 22075,
  "Disc": 18736,
  "Ġsucceed": 6236,
  "writ": 5812,
  "ppe": 24683,
  "Ġmourning": 28787,
  "ĠGW": 24780,
  "ĠGreg": 7810,
  "chers": 6565,
  "Ġfirmly": 13530,
  "ĠCork": 19952,
  "Ġcreation": 5816,
  "luded": 17296,
  "ĠMorm": 11339,
  "ĠVoy": 23205,
  "probably": 24744,
  "essors": 19945,
  "Ġstocks": 12801,
  "Ġunpaid": 21721,
  "ritical": 15411,
  "rett": 7104,
  "uss": 953,
  "Ġshipment": 29709,
  "Ġinfinite": 16925,
  "ĠDor": 12250,
  "Ġsergeant": 28338,
  "ãĤĮ": 27933,
  "ĠMarty": 24297,
  "December": 20758,
  "cept": 1005,
  "Ġqueer": 20438,
  "ĠGuate": 23380,
  "Ġnominated": 14248,
  "Ġdeterrent": 27887,
  "Ġairspace": 27755,
  "ĠALL": 14896,
  "Ġattribut": 26813,
  "ĠHeroes": 18625,
  "ĠWH": 9221,
  "Ġunused": 24545,
  "iation": 4256,
  "Ġclosure": 14215,
  "Ġassert": 8910,
  "Ġstunning": 12040,
  "Ġincarnation": 30065,
  "opsis": 30921,
  "Ġhungry": 14233,
  "vidia": 23488,
  "Ġappear": 1611,
  "Aug": 14563,
  "again": 16183,
  "bish": 27555,
  "ĠIndigenous": 18959,
  "ĠOsborne": 22056,
  "Ġancestry": 27453,
  "ĠCopy": 20840,
  "Ġleftist": 21269,
  "Doc": 29948,
  "oop": 11706,
  "Ġparticipant": 18500,
  "ĠDance": 21921,
  "Ġalien": 8267,
  "Ġstuck": 7312,
  "ivil": 2182,
  "Åį": 13543,
  "Ġundergo": 16194,
  "ĠHut": 29363,
  "Ġambient": 26123,
  "elled": 17829,
  "log": 7684,
  "ppers": 8694,
  "ĠHillary": 4041,
  "EC": 3733,
  "ĠElections": 24365,
  "ĠAZ": 28421,
  "attled": 23875,
  "Ġharvest": 12709,
  "ĠBod": 26630,
  "Ġrequest": 3336,
  "ĠLil": 21526,
  "Ġchart": 6320,
  "Ġnood": 25249,
  "Ġhack": 4587,
  "Ġdisappoint": 5741,
  "Ġskating": 26000,
  "Ġshapes": 14441,
  "Ġmiracle": 19812,
  "Ġinfo": 9627,
  "Ġsynthesis": 24188,
  "Ġclip": 10516,
  "Ġbodily": 22432,
  "Ġstrips": 22808,
  "Ġscout": 21922,
  "Ġconversion": 12275,
  "Ġnotice": 4449,
  "fashioned": 24387,
  "Ġoffences": 19780,
  "Sp": 5505,
  "eur": 23945,
  "Ġachieving": 15043,
  "rophic": 15660,
  "ĠKro": 27360,
  "âĸł": 24574,
  "Ġpockets": 15243,
  "rol": 4002,
  "Ġarrivals": 28325,
  "ÙĬ": 17526,
  "Ġnew": 554,
  "military": 27673,
  "Ġsk": 1446,
  "Ġsigned": 3706,
  "Prov": 22210,
  "Ġmagnet": 19104,
  "Ġ101": 14095,
  "herty": 23756,
  "Ġdisple": 31987,
  "ĠâĻ": 31208,
  "ĠHulu": 27734,
  "Ġsuggestions": 11774,
  "Ġgeographic": 22232,
  "ĠSelf": 14636,
  "Ġlasts": 22555,
  "ĠClay": 15057,
  "Ġallocated": 19197,
  "Ġwisdom": 11468,
  "ĠRecords": 12294,
  "Ġmental": 4960,
  "Ġdessert": 28144,
  "Ġmaster": 5429,
  "Ŀ": 208,
  "Ġcu": 15148,
  "Ġlocking": 23198,
  "Us": 7819,
  "ĠUs": 5067,
  "ĠGrove": 23251,
  "insky": 19661,
  "aper": 1991,
  "Ġshaken": 25391,
  "Ġimport": 1235,
  "Ġbo": 1393,
  "something": 16879,
  "Ġinnocent": 9314,
  "ĠIllinois": 8605,
  "ĠSark": 24107,
  "Ġcommemorate": 30978,
  "ĠUtah": 9080,
  "ictionary": 16133,
  "ĠSaskat": 20229,
  "Ġcoincidence": 18096,
  "Ġplanners": 25850,
  "Ġperipheral": 26345,
  "ĠPvP": 30328,
  "Ġfost": 20367,
  "ĠFre": 7412,
  "Ġpart": 569,
  "ITION": 29765,
  "Ġdetrimental": 26622,
  "Ġmeet": 1641,
  "xd": 27496,
  "akers": 3293,
  "ĠFlag": 21149,
  "Ġpent": 21361,
  "Ġprop": 1649,
  "ive": 378,
  "Ġencounter": 9348,
  "Ġtaught": 7480,
  "ĠSup": 4656,
  "Ġ199": 1595,
  "Ġscorer": 23196,
  "Ġechoes": 25618,
  "ĠDirector": 5765,
  "Ġselections": 25913,
  "ĠAli": 7652,
  "Ġcriteria": 10956,
  "ĠDelhi": 10079,
  "Ġparadigm": 19239,
  "Ġyell": 10510,
  "íķ": 27159,
  "ĠBridge": 9231,
  "protected": 25190,
  "yl": 3321,
  "Ġsectarian": 21242,
  "rie": 5336,
  "tailed": 29977,
  "Ġconclus": 5339,
  "atories": 18302,
  "Che": 8304,
  "ĠTier": 21487,
  "Ġcompre": 7498,
  "Ġel": 1255,
  "Ġstern": 27035,
  "Ġfries": 30107,
  "Ġanest": 30472,
  "Ġinnovations": 20420,
  "ĠQuin": 29680,
  "ogenic": 16994,
  "North": 12712,
  "ĠOttawa": 11144,
  "ĠIvanka": 24843,
  "ĠOx": 9994,
  "Ġhey": 16515,
  "ĠLeft": 9429,
  "Ġrecept": 11775,
  "Ġsilent": 10529,
  "ĠDistrict": 5196,
  "Made": 30171,
  "Ġtasks": 8297,
  "ĠFresh": 21195,
  "Ġdrastic": 22049,
  "ĠWatch": 6472,
  "ark": 635,
  "Move": 29795,
  "Ġpros": 3977,
  "ĠLatino": 16847,
  "Ġcoy": 29759,
  "as": 248,
  "Ġlawsuits": 13825,
  "Ġsting": 21347,
  "ī": 188,
  "ĠShepard": 29287,
  "raven": 24619,
  "ako": 23724,
  "orously": 22352,
  "Ġstaying": 9577,
  "Ġrails": 26812,
  "Ġinfantry": 21761,
  "Ġgoaltender": 30632,
  "ĠOffice": 4239,
  "illed": 3205,
  "Ġemployed": 9172,
  "ĠYOUR": 21259,
  "abling": 12372,
  "Ġvalidation": 21651,
  "rÃ©": 23485,
  "Ġmembers": 1659,
  "post": 6760,
  "ĠKanye": 25396,
  "ĠStatement": 29179,
  "GE": 8532,
  "Ġsuggests": 4944,
  "locked": 28328,
  "thirds": 14609,
  "Ġmeasured": 8865,
  "ĠGates": 13766,
  "ĠSheriff": 10722,
  "Ġwat": 4116,
  "ECD": 25411,
  "mittee": 3968,
  "Ġremake": 22360,
  "pleasant": 20722,
  "Ġ47": 7822,
  "Ġproject": 1397,
  "flation": 28702,
  "Ġqueen": 17541,
  "El": 9395,
  "ĠCommons": 11485,
  "Ġscroll": 16615,
  "Ġaffirm": 16451,
  "Ġlinked": 6070,
  "Ġble": 7117,
  "ĠOptim": 29952,
  "Ġ33": 6199,
  "Ġboxing": 17514,
  "ĠIce": 8358,
  "ĠKim": 6200,
  "Ġtaboo": 30156,
  "Ġsurpass": 15150,
  "Ġhormones": 23295,
  "waukee": 13020,
  "ĠReyn": 17359,
  "Ġunnamed": 18761,
  "Ġneurolog": 21010,
  "nesty": 14231,
  "acles": 10425,
  "gn": 5033,
  "supp": 12387,
  "ĠOb": 1390,
  "who": 7757,
  "ĠVII": 24323,
  "ĠVictoria": 11322,
  "ĠPeters": 13375,
  "ĠDale": 19182,
  "Cur": 29141,
  "Ġtraded": 11456,
  "Ġfare": 12699,
  "Ġgreens": 29746,
  "Ġbacklash": 14820,
  "issan": 21111,
  "ĠMarks": 29168,
  "Ġculprit": 22686,
  "ĠParent": 31089,
  "semble": 14523,
  "Ġanticip": 7470,
  "Ġhumanity": 8492,
  "au": 511,
  "ĠAdd": 4288,
  "Ġfundamentally": 14332,
  "Ġmac": 9364,
  "Ġspheres": 31351,
  "ĠMaria": 13210,
  "Land": 24994,
  "Ġswitched": 14068,
  "Ġsmaller": 4580,
  "Ġbreathing": 13461,
  "Ġnegotiations": 7537,
  "Ġdepartment": 4424,
  "urban": 30283,
  "Jordan": 28894,
  "lligence": 3075,
  "Ġ210": 26533,
  "yle": 2351,
  "ĠSilent": 28465,
  "Ġportrayal": 25941,
  "elt": 2050,
  "Chicago": 21659,
  "ĠGreenwald": 30651,
  "Ġthey": 432,
  "ĠTechnical": 23007,
  "Ob": 6345,
  "ĠTheodore": 31665,
  "ĠâĢĿ": 9136,
  "Ġpuzz": 9437,
  "heric": 13275,
  "ĠEvidence": 26423,
  "Ġminimize": 17539,
  "Ġsau": 29721,
  "Ġcite": 19850,
  "antically": 29846,
  "Ġcontests": 19157,
  "Ġfindings": 5866,
  "ĠVisa": 30517,
  "Ġfeud": 18150,
  "Ġmurd": 7229,
  "fax": 19460,
  "ĠPhoto": 5456,
  "storm": 12150,
  "ijuana": 4024,
  "Ġrespectful": 22796,
  "Dep": 14362,
  "Ġnotions": 23080,
  "opal": 28832,
  "orted": 7023,
  "Ġdeny": 9293,
  "rera": 19507,
  "Ġmascot": 29208,
  "iffs": 9645,
  "Ġdestroying": 13174,
  "Ġgenerating": 13720,
  "lio": 29973,
  "Ġanchor": 16203,
  "ĠServer": 14472,
  "ĠHTTP": 16747,
  "Ġheck": 19394,
  "ĠBren": 17306,
  "Ġaddress": 2249,
  "Ġhipp": 17392,
  "Ġket": 18751,
  "Is": 3671,
  "Ġdevelopmental": 23314,
  "ĠAuthority": 10312,
  "Bank": 25472,
  "cules": 14125,
  "Ġed": 959,
  "35": 3617,
  "Ġplants": 5670,
  "Ġcrashes": 17537,
  "Ġ90": 4427,
  "ĠHeights": 19227,
  "ffiti": 20630,
  "ĠGandhi": 16985,
  "Ġasserted": 18392,
  "ĠPlus": 8848,
  "Ġlith": 21913,
  "Ġcriticizing": 20402,
  "eneration": 18582,
  "arenthood": 13010,
  "Ġrook": 8497,
  "vik": 29306,
  "ĠLimbaugh": 26505,
  "ĠKushner": 20870,
  "Ġvanilla": 20556,
  "Ġrewrite": 24195,
  "She": 3168,
  "Ġinvestigative": 16462,
  "ĠHond": 21200,
  "Ġallegedly": 6359,
  "anti": 14727,
  "ĠServices": 7109,
  "olan": 14235,
  "Ġtravel": 2899,
  "\")": 8473,
  "iol": 1537,
  "days": 13781,
  "Ġmosques": 25766,
  "Ġallowance": 27578,
  "wit": 1372,
  "Ġironically": 27065,
  "ĠLawson": 29969,
  "Ġfirsthand": 30717,
  "ully": 2094,
  "Ġdesigned": 3447,
  "ĠTre": 4655,
  "Ġprogress": 2993,
  "ĠKnowing": 29352,
  "ĠSell": 27699,
  "ĠRow": 12119,
  "Ġmagist": 27918,
  "ĠRapids": 22403,
  "Ġcust": 8788,
  "starter": 10538,
  "ĠFX": 21831,
  "Senate": 23336,
  "Ġfilled": 5972,
  "Ġlistening": 8080,
  "aired": 15076,
  "Ġpassing": 5633,
  "ĺ": 203,
  "Ġceleb": 8560,
  "Ġmetrics": 17787,
  "Ġentering": 7948,
  "ĠEss": 13078,
  "ĠMartha": 25020,
  "arus": 22658,
  "Ġmetic": 26945,
  "Ġpuzzle": 14530,
  "Ġhistorians": 17502,
  "Ġtheoret": 11384,
  "ĠThursday": 2868,
  "ĠFollowing": 10585,
  "kes": 11133,
  "ĠJohn": 1530,
  "Ġpatrons": 22498,
  "Ġrob": 3418,
  "ĠPolitics": 15551,
  "ĠSister": 30120,
  "Ġimmensely": 25861,
  "Center": 26512,
  "Ġadorable": 27746,
  "ĠKick": 9955,
  "Ġenergies": 27643,
  "Ġglove": 27145,
  "âĸĳ": 30597,
  "Ġextingu": 27551,
  "Ġindul": 18753,
  "itt": 4630,
  "Ġalter": 9489,
  "Ġspine": 21267,
  "Ġindeed": 5498,
  "touch": 29093,
  "ĠChrome": 11751,
  "ĠChin": 21683,
  "ather": 995,
  "Ġgameplay": 10684,
  "ĠDublin": 14500,
  "ĠPeterson": 16157,
  "uren": 29406,
  "Ġroasted": 30769,
  "jet": 24405,
  "Ġsecret": 2890,
  "Jes": 21693,
  "ĠPriest": 27278,
  "assy": 9805,
  "otechnology": 27329,
  "ĠISP": 28277,
  "Â": 125,
  "Ġinst": 932,
  "Ġincomp": 12490,
  "ĠNone": 10807,
  "Ġpump": 7945,
  "Ġpatterns": 7546,
  "Ġspe": 673,
  "Ġclassroom": 14345,
  "fly": 13342,
  "Harry": 26273,
  "Ġbehaving": 31882,
  "Ġwaterfront": 31101,
  "Ġtsunami": 23144,
  "urai": 24733,
  "Ġ450": 21168,
  "ĠInfantry": 29715,
  "Ġearthquake": 13715,
  "Ġvacation": 13580,
  "believ": 15968,
  "ĠMoz": 15759,
  "Ġpresidents": 14471,
  "Ġnovel": 4548,
  "ĠMaver": 26007,
  "Ġdynamically": 30956,
  "Ġrunway": 23723,
  "azor": 18554,
  "science": 15433,
  "ĠArea": 10560,
  "Ġtimed": 28123,
  "uge": 1938,
  "ĠRw": 26850,
  "LAY": 22967,
  "Ġpursue": 9165,
  "Ġsummary": 12038,
  "ĠNewark": 24055,
  "Ġhyper": 9087,
  "isl": 2572,
  "Ġemer": 2748,
  "Ġrandomized": 29095,
  "Ġspecialized": 16543,
  "oun": 859,
  "Video": 12873,
  "Ġtrends": 10006,
  "riers": 8009,
  "Ġdoes": 828,
  "Ġhangs": 26312,
  "ĠCarter": 9370,
  "Self": 27847,
  "atz": 23046,
  "umatic": 16291,
  "ĠEvangel": 25400,
  "ring": 1884,
  "ĠTwins": 26708,
  "Ġnotes": 4465,
  "asty": 8343,
  "upid": 7688,
  "Ġsculpt": 14903,
  "Ġswipe": 27118,
  "Ġblogs": 15578,
  "urance": 3738,
  "Ġsteps": 4905,
  "ĠMonetary": 26276,
  "ocalyptic": 24041,
  "Ġdeduct": 21628,
  "bes": 11312,
  "ĠDown": 6625,
  "Ġphenomena": 18892,
  "Ġretiring": 22458,
  "ernick": 21795,
  "ĠPole": 28412,
  "Ġexpanded": 8405,
  "Ġorganis": 11009,
  "google": 24157,
  "Ġtrace": 13607,
  "none": 31588,
  "ttes": 12061,
  "Ġunsuccess": 15380,
  "resent": 1836,
  "abet": 9913,
  "Ġrobot": 8087,
  "45": 3635,
  "Ġside": 1670,
  "db": 14467,
  "Until": 15373,
  "ĠMedicaid": 11302,
  "sections": 29230,
  "Ġbirds": 9596,
  "ulative": 13631,
  "Ġ1980": 5987,
  "Ġstabbing": 25474,
  "mentioned": 15949,
  "maker": 8673,
  "Ġestate": 7323,
  "landers": 28613,
  "arian": 3377,
  "Ġfolding": 29800,
  "Ġtranscription": 29359,
  "Ġvaluation": 28030,
  "ols": 10383,
  "Ġlargely": 4639,
  "ĠSlack": 31830,
  "Ġreaches": 12648,
  "otes": 7245,
  "Ġram": 14935,
  "plus": 9077,
  "Ġfif": 5263,
  "Ġsuperhero": 13893,
  "ĠTyson": 23501,
  "ĠWillis": 28184,
  "2012": 10662,
  "Ġrhyth": 13390,
  "fs": 12400,
  "amba": 27524,
  "Marcus": 29753,
  "Ġheading": 8389,
  "ĠMotorola": 23745,
  "uster": 5291,
  "City": 14054,
  "ĠCob": 18573,
  "Ġwhites": 12781,
  "acer": 12379,
  "ĠLit": 26978,
  "Ġsqueeze": 20269,
  "this": 7620,
  "Ġcovering": 8724,
  "ĠStark": 22258,
  "View": 9730,
  "Ġfren": 19762,
  "Ġincentives": 13515,
  "Ġlegitimately": 30828,
  "Ġrisks": 6794,
  ")âĢĶ": 25073,
  "Ġinterrogation": 20228,
  "ANT": 15002,
  "Ġpredec": 11580,
  "Ġethos": 30730,
  "ĠFine": 19307,
  "Ġconquest": 27019,
  "Ġslight": 3997,
  "Ġcontempl": 17935,
  "Ġsuppliers": 18739,
  "ĠKepler": 31052,
  "Ġraised": 3960,
  "ondo": 20038,
  "itizens": 29847,
  "Ġjuven": 17487,
  "Ġexceeding": 26035,
  "client": 26534,
  "usk": 18494,
  "Ġdemographics": 24149,
  "Die": 30795,
  "ĠDim": 16821,
  "ĠGraham": 9443,
  "apse": 6832,
  "ĠVegan": 29762,
  "SU": 10556,
  "ĠWork": 6042,
  "ĠPlease": 5440,
  "Er": 14997,
  "ĠCalif": 2741,
  "pires": 23995,
  "Ġsurvival": 9191,
  "Ġsec": 735,
  "wise": 3451,
  "Ġspont": 17425,
  "Ġoffseason": 11842,
  "Ġmeg": 14501,
  "Ġcoordinator": 12301,
  "Ġmostly": 4062,
  "ĠElon": 26971,
  "Ġdisappointment": 15615,
  "Ġ22": 2860,
  "Ġblank": 9708,
  "Ġslated": 17062,
  "\":": 4928,
  "ĠFrequ": 29335,
  "PR": 5717,
  "Ġcomputers": 7777,
  "Ġdetr": 19777,
  "Ġamid": 8593,
  "ĠSwitzerland": 12637,
  "ĠOur": 4275,
  "Ġsoared": 27704,
  "athon": 11821,
  "inous": 26800,
  "Ġthoughtful": 19597,
  "ĠSalv": 17881,
  "Ġrow": 6203,
  "Ġsprings": 27440,
  "Ġcam": 12286,
  "Ġ[âĢ¦]": 24303,
  "Ġfreel": 16867,
  "ĠAnd": 757,
  "ĠHarbaugh": 30848,
  "acter": 6049,
  "ĠPanther": 29089,
  "Ġtracks": 7580,
  "ichi": 22338,
  "ĠMalcolm": 17141,
  "Ġint": 506,
  "amo": 15234,
  "ider": 1464,
  "Ġpsy": 15390,
  "Ġsentencing": 17860,
  "j": 74,
  "Ġhaul": 15063,
  "ĠKenny": 18339,
  "Ġ000": 20743,
  "ĠTeam": 4974,
  "Ġsanct": 14512,
  "Ġcrowded": 15840,
  "Ġpushing": 6552,
  "ĠMull": 16614,
  "Ġaccurate": 7270,
  "ĠWAR": 18341,
  "tax": 17610,
  "mir": 10270,
  "Ġtreatments": 13144,
  "Ġbase": 2553,
  "Ġcostumes": 20934,
  "Ġirregular": 22385,
  "cott": 11450,
  "Ġfluct": 18516,
  "Ġaka": 22293,
  "ĠDynam": 16469,
  "akespe": 17494,
  "ĠIndonesian": 23231,
  "Ġparking": 7156,
  "kara": 19882,
  "Ġtattoos": 27507,
  "ĠNiger": 11064,
  "ĠRichards": 20256,
  "ĠCOP": 30766,
  "Ġinteraction": 9998,
  "Ġprecedent": 15562,
  "Ġdownloaded": 16024,
  "Ġtraction": 20062,
  "office": 29445,
  "Get": 4290,
  "Ġinvestment": 4252,
  "Ġinjuries": 6040,
  "ĠPopulation": 26586,
  "Ġresil": 16713,
  "ĠBeverly": 25497,
  "vard": 8599,
  "Ġastronaut": 15073,
  "Ġconsolidation": 28028,
  "ĠKey": 7840,
  "ĠStay": 19200,
  "Ġzombies": 21835,
  "Ġadds": 6165,
  "Ġdomination": 21164,
  "ãĤĴ": 21709,
  "Ġdon": 759,
  "ĠTransit": 19245,
  "Ir": 21518,
  "ĠWinnipeg": 18243,
  "Ess": 28792,
  "ĠRather": 10067,
  "aylor": 6717,
  "Ġspring": 5595,
  "Ġphone": 2720,
  "Ġour": 618,
  "ĠGoodman": 25920,
  "xxxx": 22268,
  "Ġradioactive": 20525,
  "Page": 17343,
  "munition": 13898,
  "Ġmovies": 5889,
  "Ġflourish": 25843,
  "Ġsupply": 4980,
  "angular": 21823,
  "Ġmonopoly": 18441,
  "Ġsidelined": 29991,
  "ĠTyler": 13175,
  "irable": 13203,
  "Social": 18626,
  "upp": 4321,
  "Score": 28382,
  "ĠMcN": 18598,
  "ĠNancy": 15367,
  "ONE": 16848,
  "reshold": 10797,
  "ifications": 7336,
  "Ġpad": 16265,
  "ip": 516,
  "Ġdominance": 15696,
  "hello": 31489,
  "Ġfacilities": 6916,
  "Right": 10912,
  "GI": 19299,
  "Ġsurge": 11488,
  "Ġcompliant": 30155,
  "Ġstored": 9430,
  "ĠTok": 9804,
  "Ġprodu": 927,
  "Ġdemolition": 23989,
  "ĠIslamabad": 31901,
  "Ġlithium": 25154,
  "ĠSter": 18098,
  "Ġpedest": 12359,
  "ĠJacksonville": 21188,
  "Ġoutcomes": 10753,
  "Ġbride": 27568,
  "ump": 761,
  "Jess": 31144,
  "Ġlacking": 13156,
  "ĠNe": 2551,
  "Ġexcited": 5552,
  "Ġgate": 9763,
  "Ġsurprises": 20683,
  "orough": 7713,
  "atured": 20697,
  "Ġmansion": 22285,
  "ords": 4218,
  "Ġvessels": 14874,
  "Ġunthinkable": 31505,
  "Ġadvancing": 17704,
  "ĠPitt": 23088,
  "Ġseason": 1270,
  "eto": 29588,
  "stick": 16041,
  "Ġcrossed": 11536,
  "Ġdef": 778,
  "Ġwanting": 9569,
  "ĠBiology": 27537,
  "Ġadhere": 24264,
  "ĠTow": 24950,
  "Ġmasturb": 27691,
  "ipher": 12152,
  "Ġscandals": 21201,
  "HO": 26626,
  "chedel": 20007,
  "ĠVaugh": 25492,
  "ĠBurn": 10373,
  "Ġplural": 19189,
  "normal": 13202,
  "Ġfading": 29355,
  "Ġrecorded": 5523,
  "lli": 11541,
  "ĠActually": 18230,
  "Ġqualifying": 16092,
  "RO": 11857,
  "Ġconstrain": 12448,
  "Another": 5644,
  "ĠLeh": 22516,
  "Ġaggravated": 22478,
  "ĠJamaica": 26248,
  "amed": 1995,
  "Ġdistracted": 21330,
  "ĠBlade": 21636,
  "Ġcommitted": 4850,
  "breaks": 26271,
  "Ġbanners": 27130,
  "W": 55,
  "ropy": 29366,
  "Ġirres": 24813,
  "cam": 20946,
  "Simon": 31257,
  "ackets": 27924,
  "istence": 22445,
  "ĠOrleans": 10467,
  "ĠÂ°": 16395,
  "Ġreneg": 25239,
  "Ġpersuaded": 22001,
  "Ġacquired": 8880,
  "iting": 1719,
  "02": 6871,
  "Ġlegislative": 9326,
  "Ġsounds": 5144,
  "Ġlore": 25712,
  "!,": 26685,
  "Ġreside": 26218,
  "Ġrocket": 9124,
  "Ġextended": 6815,
  "adata": 17524,
  "ĠBook": 5573,
  "Ġconfiscated": 27435,
  "ĠÄ": 30728,
  "AT": 1862,
  "Ġunpredictable": 19348,
  "Ġhomers": 30236,
  "ĠJun": 10675,
  "Ġtrained": 8320,
  "ressing": 11047,
  "Ý": 152,
  "Ġnamed": 3284,
  "Ġtemporarily": 12788,
  "ĠEducation": 8031,
  "ĠLambert": 30213,
  "ĠWhis": 29592,
  "Ġthose": 805,
  "rate": 4297,
  "thal": 11434,
  "Ġelevator": 21112,
  "Ġprov": 908,
  "Ġmisunderstood": 29724,
  "ker": 7272,
  "ija": 28267,
  "Ġsediment": 29483,
  "ves": 1099,
  "08": 6457,
  "ĠONE": 20388,
  "ĠKansas": 8123,
  "sche": 14440,
  "Ġpublications": 14830,
  "uries": 4258,
  "nav": 29699,
  "Davis": 28710,
  "ĠMrs": 9667,
  "Ġdisposable": 28300,
  "%).": 20180,
  "ĠRoyals": 22803,
  "Ġharness": 19195,
  "rill": 19013,
  "Ġcosmetic": 30101,
  "Ġstrangers": 17176,
  "Ġlocation": 4390,
  "afer": 29717,
  "Ġfoes": 24740,
  "Ġhumor": 12929,
  "ĠGib": 10740,
  "Ġterritorial": 18955,
  "attack": 17721,
  "Virgin": 30834,
  "Ġattend": 4726,
  "Ġrenowned": 19409,
  "ĠTitan": 14915,
  "âĶĢ": 10200,
  "Ġheard": 2879,
  "install": 26687,
  "Ġbriefed": 25518,
  "Ġtickets": 8104,
  "oused": 27665,
  "ĠiPad": 10774,
  "ĠDogs": 23601,
  "IM": 5142,
  "Ġrot": 5947,
  "175": 24097,
  "Ġwas": 315,
  "ĠNova": 18538,
  "Ġsettlements": 15261,
  "ĠClient": 30119,
  "ift": 2316,
  "Ġnerv": 8683,
  "ysis": 3104,
  "lay": 14586,
  "ĠChaos": 25346,
  "Ġelectromagnetic": 30218,
  "Ġcoupled": 16523,
  "Ġbullied": 28034,
  "ĠDa": 11291,
  "agog": 28210,
  "Ġlog": 2742,
  "rot": 10430,
  "Ġdietary": 19872,
  "Ġaval": 31782,
  "Ġspar": 31347,
  "Ġsacrifices": 24299,
  "ĠKeith": 12916,
  "olly": 4732,
  "Ġresidence": 12415,
  "Ġbeat": 4014,
  "âĢ¢âĢ¢âĢ¢âĢ¢": 27132,
  "ĠDutch": 9278,
  "ĠDP": 31157,
  "Ġsoup": 17738,
  "ĠTai": 9898,
  "Ġprejudice": 19734,
  "Ġanti": 2556,
  "Can": 6164,
  "Ġshr": 9407,
  "Ġgrief": 18305,
  "ĠSales": 19857,
  "Ġarticulate": 26655,
  "ĠPG": 25528,
  "ĠCo": 1803,
  "Jeff": 16681,
  "Ġtheoretical": 14968,
  "Ġapparatus": 20430,
  "Ġwells": 18119,
  "ĠAcademy": 7896,
  "pped": 1503,
  "Ġhost": 2369,
  "Ġdisapp": 3524,
  "ired": 1215,
  "Ġjumps": 19164,
  "Picture": 25839,
  "bat": 11063,
  "Ġlogic": 8469,
  "Ġvocabulary": 23276,
  "uania": 28081,
  "ĠSche": 11273,
  "Ġis": 277,
  "Ġpiv": 14709,
  "Ġcompanies": 2149,
  ").": 790,
  "Ġwhere": 750,
  "ĠAthlet": 16025,
  "rain": 2719,
  "With": 2930,
  "Donnell": 18303,
  "Ġdisadvantaged": 31212,
  "itions": 1795,
  "HI": 24877,
  "Ġdull": 20688,
  "endez": 30351,
  "free": 5732,
  "230": 25912,
  "Ġcomprises": 29654,
  "Ġmaybe": 3565,
  "Ġ71": 13025,
  "Ġplayer": 2021,
  "coin": 3345,
  "Ġsimplistic": 29364,
  "Ġgrav": 8685,
  "inance": 13343,
  "Ġchances": 7404,
  "Ġpause": 15521,
  "On": 2013,
  "ĠMiguel": 23709,
  "Ġprofound": 10617,
  "ĠGreenland": 25543,
  "ificent": 21765,
  "Ġfairy": 21745,
  "ky": 2670,
  "Fox": 15638,
  "angerous": 22384,
  "Ġpipes": 19599,
  "ĠEpstein": 30149,
  "ĠZucker": 20973,
  "Ġgather": 5926,
  "ĠFraser": 23583,
  "ILL": 11058,
  "YouTube": 29824,
  "letes": 30506,
  "ĠPass": 9031,
  "ĠRobin": 13155,
  "ac": 269,
  "Ġinternet": 4430,
  "Le": 4190,
  "omore": 17495,
  "Ġoutp": 25883,
  "Ġneatly": 26962,
  "vict": 29738,
  "00000000": 15848,
  "Ġdownhill": 31514,
  "Ġsearched": 15632,
  "Ġintr": 9953,
  "ĠAmanda": 21701,
  "Ġairing": 23363,
  "ĠZuckerberg": 24275,
  "ament": 1817,
  "Ġforgetting": 29582,
  "Ġhapp": 1041,
  "rence": 6712,
  "doing": 16062,
  "thodox": 10996,
  "ĠBruno": 28099,
  "Ġcattle": 16084,
  "Ġfathers": 16704,
  "Ġunw": 7778,
  "Ġmods": 23943,
  "Ġpunch": 10359,
  "reli": 27379,
  "rict": 1899,
  "ĠGreatest": 29339,
  "ala": 6007,
  "ÏĦ": 23074,
  "Ġtransparent": 12717,
  "Ġmetallic": 29003,
  "Ġtumors": 30072,
  "enberg": 20190,
  "PRE": 29418,
  "Future": 29255,
  "alleng": 29299,
  "ĠTide": 29903,
  "issa": 13886,
  "lia": 21360,
  "Ġprepare": 8115,
  "Apple": 14480,
  "Ġcelebrated": 11778,
  "ĠZelda": 22602,
  "Ġviscer": 30564,
  "de": 3058,
  "Ġscience": 3248,
  "committee": 22859,
  "Ġdevote": 23032,
  "Ġheadline": 12827,
  "Ġprox": 14013,
  "Ġneg": 2244,
  "ĠNovember": 2832,
  "38": 4444,
  "ĠMend": 17262,
  "umped": 21763,
  "ĠHockey": 14414,
  "ĠMitchell": 12044,
  "Ġreflex": 25101,
  "Ġfont": 12977,
  "Ġadmissions": 23915,
  "Ġsmartphones": 13470,
  "Ġfitting": 15580,
  "ĠOutside": 22405,
  "Ġshines": 31581,
  "ess": 369,
  "Ġchap": 12621,
  "Ġactually": 1541,
  "Ġharmon": 25083,
  "Cap": 13402,
  "Ġ55": 7397,
  "Ġguys": 3386,
  "Ġinsign": 23491,
  "Ġmystical": 29924,
  "Ġremark": 6154,
  "Republic": 11939,
  "Reddit": 20642,
  "political": 19037,
  "âĢ¢": 4081,
  "ĠCapitals": 31582,
  "ĠEssentially": 29830,
  "Ġillustrated": 18354,
  "Ġboast": 24553,
  "member": 16833,
  "Ġsacred": 14410,
  "hel": 2704,
  "Ġdesc": 1697,
  "planned": 31185,
  "Ġtables": 9755,
  "hun": 21682,
  "ĠMartinez": 16798,
  "hr": 10621,
  "ĠDB": 22713,
  "Ġprogramming": 7344,
  "Ġroughly": 6261,
  "Ġpredecessor": 15119,
  "Ġfacility": 6353,
  "Ġfier": 22727,
  "status": 20970,
  "Ġdraft": 3698,
  "ice": 457,
  "Ġdivor": 9936,
  "Ġdetention": 11206,
  "Ġencourage": 7039,
  "ĠClass": 6869,
  "ĠAbdul": 18350,
  "DR": 10921,
  "rug": 1928,
  "ĠLi": 10060,
  "Ġparticipating": 11308,
  "Ġkeys": 9341,
  "Ġdisob": 27352,
  "Ġbelongs": 14384,
  "âĢĵâĢĵ": 19001,
  "Ġtelesc": 28629,
  "osed": 1222,
  "Ġsche": 3607,
  "inspired": 20243,
  "Tr": 3047,
  "Ġcreated": 2554,
  "ĠIdaho": 17595,
  "Ġpsychiatrist": 26980,
  "ĠDevelop": 6180,
  "Event": 15024,
  "Ġmodels": 4803,
  "owned": 10488,
  "ĠMarin": 30181,
  "Ġensure": 4036,
  "rc": 11203,
  "umpy": 31381,
  "Ġbom": 7482,
  "Ġsimultaneously": 10857,
  "Ġecho": 10023,
  "Ġsigns": 5471,
  "ĠMcF": 29403,
  "vous": 30527,
  "ĠPant": 10809,
  "Ġday": 1051,
  "ĠFrost": 22544,
  "otech": 28743,
  "Ġeliminate": 10144,
  "Ġcustomization": 30901,
  "Ġdetected": 12651,
  "Mean": 7658,
  "ĠToo": 15110,
  "ĠMontreal": 10291,
  "ĠPew": 18139,
  "chin": 22889,
  "Fall": 30922,
  "Ø§Ø": 24968,
  "agar": 25759,
  "Ġmissing": 4752,
  "ĠJennings": 24922,
  "ARD": 14424,
  "Ġinf": 1131,
  "Ġash": 12101,
  "Ġresponds": 18888,
  "Õ": 144,
  "Phil": 17105,
  "Ġamusement": 29632,
  "ĠAk": 9386,
  "Ġdamage": 3298,
  "Ġimpact": 2588,
  "ĠObama": 1714,
  "Ġpasswords": 18899,
  "uit": 3112,
  "ĠRiver": 5395,
  "Ġambiguous": 25092,
  "Ġhasn": 4739,
  "Ġeconomies": 12590,
  "Ġadopting": 19698,
  "Ġrefrigerator": 30952,
  "thinking": 24719,
  "ĠPradesh": 19790,
  "Greg": 26499,
  "ĠR": 346,
  "Lim": 23902,
  "Ġmathemat": 10643,
  "umbl": 13966,
  "Ġplease": 4622,
  "ĠSource": 10620,
  "ĠAngel": 3782,
  "Ġdictate": 23105,
  "µ": 114,
  "Ġworkers": 2712,
  "Ġevolving": 18061,
  "cast": 2655,
  "ĠAMC": 27876,
  "Ġpolitics": 3722,
  "ĠIL": 16594,
  "Ġneutral": 7915,
  "oren": 15984,
  "Ġspeaking": 4989,
  "notes": 23208,
  "Ġmight": 1170,
  "ĠRub": 5362,
  "istic": 2372,
  "ĠMoon": 8826,
  "camp": 17374,
  "Ġlinguistic": 27147,
  "ĠHug": 11070,
  "Ã¦": 24172,
  "Ġearth": 4860,
  "Ġsupremacy": 21846,
  "Ġbast": 20217,
  "Ġroad": 2716,
  "Ġescalate": 30298,
  "Ġcurved": 27743,
  "ierra": 14792,
  "Ġarmed": 5958,
  "missible": 24793,
  "ĠUd": 31238,
  "Ġdams": 31287,
  "Ùħ": 20027,
  "dropping": 30736,
  "Ġmakers": 12075,
  "EE": 9065,
  "Ġheter": 14204,
  "Ġproperty": 3517,
  "Ġreplicated": 30750,
  "134": 27835,
  "Ġdivisions": 14627,
  "atham": 31900,
  "formers": 26143,
  "akedown": 26881,
  "Ġstorage": 6228,
  "Ġdirectory": 13501,
  "Ġmice": 9873,
  "Ġprompted": 10245,
  "rm": 29774,
  "Ġ2013": 2102,
  "ĠMov": 12689,
  "olutions": 13817,
  "icidal": 21793,
  "osure": 4679,
  "Ġbites": 26435,
  "Ġvalid": 5776,
  "prus": 22754,
  "Dam": 19424,
  "Ġisn": 1877,
  "ĠEvents": 21385,
  "Ġpoker": 22775,
  "ĠWesley": 26977,
  "Ġsatellites": 16099,
  "ocaly": 13676,
  "Ġcomplaint": 7384,
  "ĠComments": 23451,
  "Ġdeeper": 8236,
  "Ġupgrade": 8887,
  "ĠiP": 8429,
  "Ref": 8163,
  "Ġintentions": 13230,
  "ĠArctic": 12551,
  "Ġrallying": 27480,
  "Ġprograms": 3831,
  "Law": 15480,
  "names": 14166,
  "Ġhinted": 21706,
  "nar": 17352,
  "rael": 1920,
  "namese": 18043,
  "ĠResistance": 22821,
  "ĠScar": 13218,
  "Update": 10366,
  "archy": 9081,
  "oke": 2401,
  "Ġhottest": 23236,
  "Ġlistens": 31825,
  "Ġemissions": 7022,
  "Ġapologized": 18702,
  "ĠMinority": 22653,
  "Ġdrank": 24510,
  "Ġscul": 13583,
  "Ġcoordin": 7644,
  "Ġraft": 28029,
  "opic": 16354,
  "Stephen": 22781,
  "Ġbasic": 3982,
  "Ġsuburban": 16142,
  "________": 4278,
  "arios": 11688,
  "Ġobscene": 29865,
  "Prem": 27088,
  "Ġ2025": 26372,
  "we": 678,
  "Ġcorners": 13832,
  "icity": 8718,
  "ĠBonus": 30552,
  "ĠRussell": 10003,
  "Ġlac": 28437,
  "Ġproducts": 3241,
  "Ġuntil": 1511,
  "You": 1774,
  "ĠDaw": 15263,
  "ĠWhy": 4191,
  "Ġquantity": 15829,
  "ĠJared": 16803,
  "ĠOpera": 23530,
  "Ġlens": 11082,
  "Ġchore": 25128,
  "âĪ": 25258,
  "Ġcoinc": 9656,
  "holders": 9598,
  "pectives": 17543,
  "Ġconditions": 3545,
  "raw": 1930,
  "ĠCheese": 29056,
  "Ġchoose": 4094,
  "Ġexercises": 14411,
  "Ġpurch": 3339,
  "Ġtr": 424,
  "ĠSamsung": 8806,
  "ublin": 13726,
  "ĠCran": 30817,
  "ĠMunich": 18148,
  "Ġfleet": 10546,
  "ĠExtra": 22901,
  "Ġropes": 30029,
  "Ġbrig": 20701,
  "Ġtires": 17963,
  "Ġpumpkin": 29455,
  "210": 27965,
  "Ġadaptations": 30428,
  "Ġexpression": 6330,
  "ĠSO": 15025,
  "ĠCook": 8435,
  "Ġpleasant": 16565,
  "ĠAlso": 5065,
  "ĠScot": 5897,
  "Being": 16295,
  "Ġparticle": 18258,
  "Ġgays": 21840,
  "Florida": 26181,
  "Ġlink": 2967,
  "inished": 30151,
  "Îµ": 21613,
  "Ġbadly": 10033,
  "Ġconsoles": 18976,
  "ck": 688,
  "Ġparenting": 23877,
  "Ġcircumstances": 6470,
  "ĠWestbrook": 29573,
  "Ġdisbelief": 27598,
  "ĠNit": 27161,
  "Ġninth": 16409,
  "Ġfun": 1307,
  "Ġdownward": 19497,
  "ĠFair": 8004,
  "ĠDeVos": 29381,
  "Ġbrow": 5444,
  "enfranch": 30228,
  "Ġnumbers": 2833,
  "ĠAppeal": 30054,
  "ĠLiquid": 26188,
  "Ġblock": 2430,
  "ĠCheney": 20733,
  "Ġinterpretation": 10611,
  "Ġprogressives": 22136,
  "Sam": 16137,
  "Ġcited": 7695,
  "ĠSentinel": 25013,
  "ĠAdolf": 29655,
  "Ġcontractor": 15594,
  "ĠCorey": 20340,
  "NOT": 20138,
  "ĠEffects": 25183,
  "izing": 2709,
  "ĠAppeals": 18927,
  "Ġinterventions": 18879,
  "TT": 17497,
  "ĠSergey": 29915,
  "llor": 11271,
  "Ġrat": 4350,
  "Ġlev": 23347,
  "care": 5738,
  "noticed": 26808,
  "Cent": 19010,
  "inition": 25932,
  "gender": 6912,
  "omers": 16502,
  "dream": 29325,
  "Ġnodd": 17970,
  "ijing": 8765,
  "Political": 26699,
  "Ġunab": 31982,
  "Ġpermanent": 7478,
  "igator": 26241,
  "Ġoptimal": 17649,
  "Ġnavigating": 30800,
  "ĠRabb": 20399,
  "ĠExamples": 28104,
  "Either": 28156,
  "ĠFacts": 29172,
  "erville": 30497,
  "Ġoutreach": 19346,
  "ilight": 17890,
  "Ġunst": 13542,
  "ording": 1092,
  "ill": 312,
  "That": 2097,
  "Ġrepair": 10325,
  "Tri": 26103,
  "Ġbroker": 20136,
  "Ġperfection": 21175,
  "Ġconfidential": 14772,
  "Ġcatalog": 17974,
  "ĠIndones": 10601,
  "ĠDeal": 15574,
  "ĠOffensive": 31963,
  "Ġprotocol": 8628,
  "ĠSm": 2557,
  "Ġimminent": 17388,
  "poons": 30013,
  "However": 4168,
  "Ġcontradiction": 23538,
  "Ġroads": 8318,
  "Ġfair": 2986,
  "Ġdraws": 13090,
  "uled": 21417,
  "Ġcurrently": 2754,
  "aughtered": 29799,
  "ÈĽ": 25574,
  "Ġsatellite": 9193,
  "âĢĿ)": 11382,
  "Rest": 23939,
  "zes": 12312,
  "Fl": 10563,
  "ĠLinkedIn": 22195,
  "ĠNeo": 22833,
  "Ġtraits": 13385,
  "women": 23392,
  "seys": 22572,
  "Ġ70": 4613,
  "Ġexperiment": 4605,
  "ĠAnalysis": 17727,
  "Ġsubscript": 30175,
  "Ġreluctance": 27634,
  "Ġlength": 4704,
  "Louis": 27285,
  "Ġlikely": 1657,
  "Imp": 28499,
  "ĠEnjoy": 22799,
  "product": 12582,
  "ĠHamburg": 25783,
  "ĠSunni": 14416,
  "ĠPol": 1969,
  "Ap": 26999,
  "Ġaides": 15242,
  "ĠChester": 25940,
  "holder": 14763,
  "Ġcurve": 11787,
  "ĠHelen": 21298,
  "Ġcomplicit": 31792,
  "nedy": 8244,
  "Ġseizing": 30685,
  "vine": 23719,
  "ĠPione": 29563,
  "ĠClinic": 27503,
  "asure": 6015,
  "ĠEthiop": 19192,
  "Sing": 26452,
  "Ġbreak": 2222,
  "antine": 17562,
  "Bloom": 29420,
  "ĠCarly": 29873,
  "Ġhel": 7409,
  "Ġwonder": 4095,
  "ĠTen": 9531,
  "Ġcoded": 29671,
  "Ġgirl": 2734,
  "Ã¡s": 22575,
  "umm": 12309,
  "main": 12473,
  "Ġvisible": 7736,
  "ĠTayyip": 31945,
  "Ġbypass": 16246,
  "ING": 3935,
  "Georg": 29893,
  "ĠEdison": 29974,
  "Ġbottled": 29767,
  "Ġpointer": 20820,
  "Ġprope": 25293,
  "Ġoutraged": 21403,
  "ĠCoalition": 11879,
  "ĠStep": 5638,
  "ĠGod": 2596,
  "isure": 21159,
  "Ġvarying": 15368,
  "ante": 13579,
  "ĠGraphics": 31409,
  "ations": 547,
  "ĠThem": 29365,
  "ĠWill": 2422,
  "Ġdozen": 7326,
  "Ġcush": 25009,
  "ĠWalsh": 19023,
  "ĠSacramento": 16122,
  "Ġdirect": 1214,
  "ĠObserv": 15916,
  "ĠDems": 22266,
  "Ġacademy": 17845,
  "Ġostensibly": 24429,
  "ĠDivine": 29085,
  "Ġunhealthy": 24738,
  "owski": 10214,
  "Ġboiled": 29677,
  "ĠMorgan": 9877,
  "ere": 614,
  "Ġsavage": 28691,
  "ipse": 16140,
  "Fire": 15665,
  "Ġinclusion": 13300,
  "ĠTheresa": 19240,
  "Ġdisappeared": 11967,
  "Ġphenomenon": 9298,
  "atican": 15034,
  "ĠCorpor": 9110,
  "Ġpracticed": 18062,
  "ĠHumans": 30327,
  "Ġcruelty": 21337,
  "ĠLa": 3942,
  "Ġte": 501,
  "ĠSyria": 3642,
  "hift": 24706,
  "Ġalright": 27215,
  "fol": 9144,
  "Ġtransitioning": 30885,
  "tails": 25141,
  "zens": 7051,
  "ful": 881,
  "Ġsuperficial": 28961,
  "ĠAside": 25523,
  "Ġdeter": 2384,
  "Ġassume": 6883,
  "Ġrelease": 2314,
  "Ġoffensive": 4777,
  "Left": 22364,
  "Ġvoyage": 28705,
  "Girl": 28489,
  "Ġboarding": 23071,
  "ĠMidwest": 21319,
  "uct": 4943,
  "Initially": 31322,
  "Ġpiles": 28009,
  "Ġreports": 2666,
  "Ġcinematic": 24754,
  "Ġdriveway": 30361,
  "pre": 3358,
  "Ġrhetorical": 30222,
  "Ġtribute": 14431,
  "ĠKang": 27510,
  "onut": 16793,
  "Ġnarrator": 27340,
  "ĠEN": 20019,
  "ear": 422,
  "pt": 475,
  "Ġambulance": 19293,
  "ĠDust": 18373,
  "FA": 8295,
  "Ġdecide": 5009,
  "wage": 17241,
  "Ġnephew": 22942,
  "Ġempir": 17397,
  "Ġwax": 22188,
  "dit": 8623,
  "Ġbicycle": 15720,
  "viron": 2041,
  "Arab": 26252,
  "Ġfever": 16817,
  "Ġmaintaining": 10361,
  "ĠDurant": 23130,
  "ctic": 9001,
  "Ġcollectors": 23620,
  "Ġ41": 7994,
  "Ġsurn": 30287,
  "lected": 12109,
  "Ġequipped": 11736,
  "Ġmale": 4296,
  "Ġrespons": 2297,
  "Ġconceal": 22452,
  "Ġmetadata": 19765,
  "Ġcommunic": 3262,
  "ĠBritish": 2919,
  "Ġbreeding": 18219,
  "Ġexec": 2154,
  "Ġdeclaration": 12723,
  "\"?": 24092,
  "ĠCOL": 29066,
  "auer": 13764,
  "Ġtub": 13791,
  "Ġrevol": 24375,
  "fu": 26357,
  "ĠSR": 22125,
  "Ġspons": 6141,
  "ĠSpider": 13941,
  "Ġconsiderable": 10627,
  "ooting": 13849,
  "Ġdaylight": 25019,
  "Ġarmored": 24198,
  "inav": 24116,
  "Meanwhile": 7876,
  "esters": 5753,
  "ĠPiet": 31969,
  "c": 67,
  "akes": 1077,
  "Ġ1993": 9733,
  "ĠSynd": 22472,
  "Ġextension": 7637,
  "olith": 19470,
  "Jay": 26715,
  "Ġframe": 4383,
  "Ġcontinent": 13865,
  "Ġfilmed": 14459,
  "ĠSummon": 30787,
  "Ġsponsors": 14939,
  "Ġgrill": 30747,
  "ablo": 16841,
  "ach": 587,
  "a": 65,
  "ĠSox": 13544,
  "Ġdisrupt": 8577,
  "habi": 27817,
  "Ã£o": 14123,
  "Ġimmun": 18018,
  "actly": 23000,
  "Ġhumane": 28395,
  "cial": 2456,
  "jury": 26972,
  "etime": 7826,
  "Ġsu": 384,
  "ĠDodgers": 18437,
  "alin": 14465,
  "ĠGenerally": 27447,
  "Ġhosting": 11552,
  "Ġconfronted": 14760,
  "Ġinstrumental": 17887,
  "Ġgateway": 23749,
  "odo": 22928,
  "Ġexpansion": 6083,
  "ĠPodesta": 22955,
  "eson": 31423,
  "Ġwho": 447,
  "Ġnone": 5004,
  "itary": 9458,
  "Ġsummit": 10380,
  "ĠTurks": 25236,
  "ĠWise": 28801,
  "ĠTrack": 21119,
  "Ġsher": 12530,
  "ald": 1750,
  "Ġreliably": 24237,
  "ĠKatz": 30470,
  "Ġstarts": 4987,
  "ĠSag": 27739,
  "Ú": 149,
  "urious": 16310,
  "Ġvit": 10819,
  "wered": 8581,
  "ĠBelle": 30677,
  "Į": 191,
  "quer": 11804,
  "Ġstrongest": 12181,
  "Ġsorted": 23689,
  "ĠFun": 12828,
  "anne": 15614,
  "Ġchalleng": 3430,
  "ae": 4161,
  "Ari": 21618,
  "iversal": 26795,
  "Ġjets": 16850,
  "Ġswap": 16761,
  "Ġpg": 31907,
  "Ġcups": 16112,
  "Ġautomated": 14646,
  "Ġabilities": 9237,
  "lease": 3597,
  "Ġsharply": 16048,
  "Ġgard": 14741,
  "Ġrecy": 12776,
  "Ġsettle": 5160,
  "Ġmanual": 11457,
  "Sub": 7905,
  "Ġunnoticed": 28579,
  "woman": 6776,
  "uccess": 11142,
  "ĠWasserman": 29763,
  "Ġcheese": 10379,
  "night": 4615,
  "Ġsarc": 23549,
  "Ġtalking": 3048,
  "ĠNetwork": 7011,
  "ĠThree": 7917,
  "Craft": 20819,
  "ociated": 19590,
  "Ġarrest": 2652,
  "Ġconvinc": 13584,
  "Ġvolt": 18403,
  "lord": 24712,
  "ensual": 28548,
  "ĠZh": 13289,
  "ror": 1510,
  "Ġhumans": 5140,
  "ĠPam": 21842,
  "Ġcorrection": 18027,
  "Support": 20962,
  "ornings": 23706,
  "Ġtunes": 27972,
  "Ġrelentless": 20685,
  "ĠCongressman": 22435,
  "Dear": 18764,
  "Ġaggressively": 16115,
  "luent": 23572,
  "Ġinterviewed": 10208,
  "Ġflight": 5190,
  "Ġvaries": 19238,
  "Ġmaterials": 6065,
  "ô": 175,
  "ĠGirl": 9196,
  "able": 530,
  "CLOSE": 24278,
  "Ġpioneering": 28433,
  "Ġbolst": 28313,
  "NC": 6454,
  "Ġinstall": 4093,
  "ĠHome": 6527,
  "Ġsuspicious": 13355,
  "ĠIf": 1127,
  "ua": 6601,
  "ĠOp": 9866,
  "ĠSchool": 3758,
  "****": 4710,
  "hall": 18304,
  "cks": 4822,
  "ĠGarrett": 22704,
  "Ġappeals": 12716,
  "ĠMarket": 8132,
  "bey": 21915,
  "S": 51,
  "Ġimmigration": 5050,
  "Ġmonopol": 26139,
  "Ġnumer": 19607,
  "reedom": 3171,
  "Ġcrust": 19919,
  "Ġfirefighters": 18762,
  "Ġillum": 24650,
  "ĠFinally": 10108,
  "Ġoverturned": 21649,
  "ĠHills": 13471,
  "Ġvocal": 10402,
  "Ġvalue": 2364,
  "ELECT": 29011,
  "Ġrule": 3801,
  "edu": 20458,
  "ĠTommy": 17291,
  "Ġguard": 4940,
  "Added": 19344,
  "ĠIBM": 15232,
  "Ġ78": 12922,
  "Ġorders": 6710,
  "Ġinterrog": 12641,
  "Ġcrypto": 20623,
  "ĠDawson": 27787,
  "Ġbec": 559,
  "cho": 6392,
  "Ġpaper": 3099,
  "uristic": 22811,
  "Ġbelie": 1105,
  "Ġwound": 12028,
  "Ġapply": 5116,
  "Ġdefended": 10842,
  "Ġhazard": 16193,
  "Ġhandheld": 28288,
  "ath": 795,
  "recogn": 24047,
  "Ġretire": 6863,
  "Ġshovel": 31192,
  "rium": 19130,
  "Ġcrore": 17283,
  "ĠLarry": 11598,
  "Ġtaking": 2034,
  "ĠNearly": 19215,
  "ĠMet": 4886,
  "map": 11685,
  "name": 6528,
  "Ġevacuated": 21141,
  "ometown": 15519,
  "jo": 7823,
  "ile": 540,
  "Ġencouraging": 10206,
  "âĢĿ?": 17585,
  "Ġassigned": 9620,
  "Ġwhales": 18223,
  "Ġeg": 30553,
  "gered": 9794,
  "ĠUnion": 3780,
  "Ġoperation": 4789,
  "ĠGrammy": 30207,
  "ĠStre": 13737,
  "Ġattract": 3851,
  "uctions": 26862,
  "inh": 23982,
  "gence": 11697,
  "imi": 24570,
  "cann": 29201,
  "Ġincomes": 15642,
  "enabled": 26884,
  "acent": 12949,
  "ĠME": 15872,
  "Ġnostal": 18011,
  "aced": 2248,
  "ĠProfessional": 20971,
  "ĠðŁĻĤ": 28960,
  "lier": 2079,
  "ĠKoreans": 22239,
  "wife": 20788,
  "ĠLetter": 20097,
  "oring": 2371,
  "ĠDoct": 31353,
  "Ġassured": 12799,
  "Ġexits": 30560,
  "Ġamassed": 30167,
  "ICH": 25570,
  "ĠSharma": 31422,
  "Ġcricket": 13526,
  "Ġpassword": 11452,
  "Ġjump": 3969,
  "ĠTrust": 10500,
  "Ġsem": 5739,
  "ĠCutler": 30984,
  "##": 4673,
  "Ġsaying": 1929,
  "Ġrespir": 22899,
  "ign": 510,
  "atoes": 12178,
  "Ġclashes": 16388,
  "traditional": 30343,
  "Stud": 13437,
  "ĠBirth": 21090,
  "ĠBrun": 14285,
  "ĠFlyers": 23067,
  "Ġdamages": 13272,
  "ĠKathy": 30485,
  "ĠPipeline": 31376,
  "gers": 4861,
  "Ġintim": 9484,
  "ervice": 17108,
  "Ġmanipulated": 22014,
  "Ġward": 15719,
  "Ġuntrue": 30229,
  "ugging": 13983,
  "ĠHide": 12913,
  "¾": 123,
  "wh": 1565,
  "ĠServ": 3504,
  "ĠKore": 2970,
  "Ġlistened": 15078,
  "Ġhandled": 11150,
  "aned": 19887,
  "ĠZhang": 23040,
  "Ġgotta": 17011,
  "Ġversa": 24158,
  "ĠAbstract": 26138,
  "essee": 9518,
  "Ġdepends": 8639,
  "money": 23121,
  "ĠStalin": 17455,
  "Ġrag": 31884,
  "accur": 14804,
  "',": 6295,
  "Ġail": 29880,
  "ĠStephan": 18381,
  "orient": 12458,
  "Ġintimidated": 30078,
  "ĠBarber": 29750,
  "ET": 3753,
  "Ġvariable": 9982,
  "ĠColin": 16214,
  "Ġcatch": 4717,
  "ĠPerkins": 24541,
  "iliation": 13947,
  "ĠOtto": 28302,
  "autions": 30605,
  "Ass": 8488,
  "Ġmechanic": 20943,
  "itation": 3539,
  "Ġjournals": 20016,
  "Ġcrafts": 28094,
  "Ġdefinitive": 15339,
  "ĠHughes": 15871,
  "ĠEarn": 25445,
  "Ġinterf": 9572,
  "Ġfiguring": 18961,
  "ĠOm": 17592,
  "Updated": 16208,
  "uity": 14952,
  "ĠRoot": 26970,
  "ĠSanders": 4429,
  "ERE": 10922,
  "Ġtools": 4607,
  "ĠAv": 5951,
  "outheast": 12322,
  "ĠCourt": 2895,
  "Ġcap": 1049,
  "ll": 255,
  "Ġbrain": 3466,
  "Christ": 9654,
  "ĠManufact": 22106,
  "97": 7771,
  "ĠFlood": 28811,
  "Ġirrit": 16229,
  "ĠFly": 14476,
  "Ġ1986": 11797,
  "ĠDan": 5237,
  "ĠDoug": 12807,
  "Ġreactors": 20558,
  "ĠProtestant": 21629,
  "ĠFl": 1872,
  "total": 25807,
  "Ġincompatible": 28258,
  "><": 16628,
  "Ġliterature": 8911,
  "Ġrang": 25608,
  "Ġestimate": 8349,
  "Ġslack": 28875,
  "Ġcalendar": 12184,
  "ĠGret": 29653,
  "Ġspeculate": 21757,
  "Ġreplica": 27060,
  "Ġwarfare": 13204,
  "Ġpractice": 3231,
  "iggs": 17377,
  "ĠSyracuse": 24461,
  "ĠValve": 20498,
  "ĠTumblr": 22647,
  "Ġverification": 21856,
  "Ġreimburse": 27359,
  "ĠFifth": 19886,
  "ĠDen": 5167,
  "ĠKum": 17042,
  "ĠRat": 14574,
  "dy": 9917,
  "Ġrelocation": 30113,
  "Ġvarieties": 19325,
  "ques": 11530,
  "gu": 4540,
  "acht": 17280,
  "Ġlabeling": 23892,
  "ĠQuant": 21917,
  "Ġcup": 7554,
  "Ġwary": 19760,
  "Ġsub": 889,
  "Ġchallenge": 3781,
  "acebook": 2265,
  "alth": 1039,
  "PM": 8202,
  "Ġtempted": 24377,
  "Ġindustries": 9920,
  "Cor": 10794,
  "Ġlikes": 6957,
  "Ġmorning": 2979,
  "uez": 12153,
  "Ġmaid": 22026,
  "dney": 9016,
  "esame": 31161,
  "Ġcontracept": 28048,
  "Ġdetection": 13812,
  "ĠDev": 6194,
  "Ġspectacle": 22649,
  "Ġimmigrants": 6487,
  "avez": 21768,
  "ĠMirror": 20974,
  "RA": 4893,
  "Ġcommem": 15897,
  "Ġcoalition": 7238,
  "Democratic": 25435,
  "Advertisements": 11859,
  "Ġplanning": 4708,
  "Ġspouses": 29100,
  "Ġfall": 2005,
  "ĠDevelopment": 7788,
  "Ġappease": 30393,
  "onde": 16450,
  "Ġkinda": 18283,
  "ĠFields": 24014,
  "ict": 664,
  "ĠHor": 8055,
  "Ġ196": 3680,
  "resp": 4495,
  "olitical": 10942,
  "ĠClemson": 25803,
  "culture": 21192,
  "Ġconstituted": 26088,
  "ĠAven": 16043,
  "Ġbombed": 26474,
  "Ġhay": 25604,
  "ĠBir": 11255,
  "Ð": 139,
  "Ġasserting": 27205,
  "ĠSwitch": 17611,
  "å¤": 22918,
  "ĠHousing": 17805,
  "itated": 13741,
  "tim": 23034,
  "Ġedge": 5918,
  "Ġpeculiar": 21996,
  "State": 10145,
  "mala": 25603,
  "Ġmiscon": 24535,
  "Ġcrossing": 11646,
  "Frame": 28070,
  "143": 31053,
  "Bel": 11238,
  "Ġrear": 8900,
  "Ġlooming": 21270,
  "Ġvisits": 10972,
  "Ġbeer": 5049,
  "Ġintercept": 13937,
  "âĢ¦âĢ¦âĢ¦âĢ¦": 25349,
  "Search": 24938,
  "son": 1219,
  "Ġmigrant": 18185,
  "Ġrests": 23417,
  "df": 11031,
  "Kelly": 28561,
  "Ġstakes": 17422,
  "breaking": 11098,
  "Ġencl": 23695,
  "Ġgenetic": 8400,
  "ĠVia": 29167,
  "ĠRaymond": 22487,
  "Ġcrafting": 22039,
  "Ġaddressed": 8650,
  "cars": 30794,
  "Ġinning": 18803,
  "ĠJan": 2171,
  "Ġliberation": 19191,
  "uced": 13753,
  "ĠTro": 8702,
  "Ġduty": 7504,
  "aved": 9365,
  "ĠScha": 25753,
  "Ġconsidered": 3064,
  "Ġhands": 2897,
  "Ġ\"[": 19524,
  "ĠSoviet": 6473,
  "BLE": 25698,
  "true": 16889,
  "meaning": 22638,
  "acc": 6726,
  "ĠÑģ": 14841,
  "Ġconstituency": 21401,
  "ĠKyle": 12586,
  "bitious": 11248,
  "Ġextremes": 27525,
  "elli": 25380,
  "ãģ£": 25910,
  "Ġmascul": 17913,
  "ospel": 15209,
  "urry": 16356,
  "TION": 12986,
  "ĠHO": 29845,
  "Ġunderage": 31159,
  "Ġsimplified": 25158,
  "ĠWebb": 20817,
  "Ġglimpse": 16535,
  "Ġfoul": 14607,
  "ny": 3271,
  "ĠDig": 8229,
  "ĠAmong": 9356,
  "Ġcasts": 27474,
  "Ġspotlight": 14660,
  "Ġendure": 20486,
  "Ġauthoritarian": 17753,
  "Ġaction": 2233,
  "Ġcruise": 17477,
  "Ġepisode": 4451,
  "Labour": 25291,
  "Ġintroduction": 9035,
  "ĠBay": 3994,
  "Ġfunctionality": 11030,
  "kinson": 22024,
  "Ġremarked": 21541,
  "ĠStation": 9796,
  "isse": 19083,
  "ĠIowa": 7630,
  "Ġgreet": 12156,
  "Ar": 3872,
  "Ġcompletely": 3160,
  "Ġdiet": 6781,
  "Ġoperates": 12292,
  "Ġsuprem": 12369,
  "Ġdocumentary": 9127,
  "Ġnonprofit": 12486,
  "Ġreviewing": 15190,
  "hey": 17199,
  "Ġmalf": 26061,
  "tu": 30780,
  "Ġadul": 18224,
  "Ġfiery": 26927,
  "Ġsoil": 8894,
  "Ġhair": 4843,
  "leys": 20354,
  "ĠLondon": 3188,
  "Ġrapid": 5331,
  "cean": 5410,
  "Ġclient": 6045,
  "Ġunlikely": 6252,
  "Ġgo": 414,
  "Ġâ": 3144,
  "Ġdoubtful": 30724,
  "mis": 22441,
  "ĠNebraska": 16347,
  "dog": 8925,
  "Ġmor": 1944,
  "Ġband": 3604,
  "great": 16267,
  "Su": 21622,
  "ĠRB": 18840,
  "ĠHorn": 15452,
  "Ġtherapy": 9808,
  "ĠMotors": 15853,
  "Ġmake": 742,
  "Ġbyte": 21892,
  "Ġambitious": 11568,
  "ĠFischer": 26775,
  "hem": 4592,
  "ĠHeart": 10143,
  "Ġdepths": 21145,
  "Ġmasks": 20775,
  "Ġener": 2206,
  "ured": 1445,
  "Ġwritings": 18581,
  "ĠWelcome": 24606,
  "iti": 8117,
  "ĠAgreement": 15634,
  "Ġindef": 14868,
  "ective": 9179,
  "clear": 25731,
  "ĠSpark": 22731,
  "Ġalongside": 6570,
  "Ġign": 3548,
  "Ġdaughter": 4560,
  "Ġstripped": 16429,
  "Ġrealism": 26154,
  "Ġtob": 11741,
  "Ġsimilarity": 24970,
  "acket": 8995,
  "Ġposing": 20324,
  "ĠPatri": 8770,
  "Ġministry": 9644,
  "Ġangles": 18128,
  "Ġscared": 10998,
  "Ġforfeiture": 31228,
  "Ġhouseholds": 11019,
  "ĠOne": 1881,
  "ĠReserve": 10315,
  "Ġhikes": 26237,
  "Ġfailures": 13033,
  "sound": 30790,
  "Ġmanipulation": 16128,
  "Ġmacro": 15751,
  "ĠTit": 6850,
  "ĠVes": 28681,
  "Ġadaptation": 13809,
  "Ġsil": 3496,
  "Ġaccounts": 5075,
  "ĠNapole": 24844,
  "Ġpan": 3281,
  "alt": 2559,
  "Ġsubsequent": 8733,
  "09": 6587,
  "ĠSl": 4566,
  "Ġproportions": 22614,
  "âĢĺ": 4719,
  "Ġbuildings": 5983,
  "ĠObamacare": 9350,
  "cled": 20680,
  "Ġsupported": 4601,
  "Ġairplane": 19221,
  "Ġweakened": 21681,
  "ĠSh": 1065,
  "CE": 7125,
  "Ġalike": 12030,
  "Ġdup": 29416,
  "Ġsurpassed": 24801,
  "Ġchaotic": 20346,
  "den": 5215,
  "Ġfarming": 13822,
  "ĠDuck": 22813,
  "stown": 23903,
  "produced": 25791,
  "Ġspite": 14567,
  "acks": 5080,
  "yon": 16825,
  "Ġhighway": 12515,
  "ixtures": 24620,
  "Ġfrequ": 3715,
  "Ġunden": 22166,
  "Ġos": 26453,
  "Ġeffects": 3369,
  "Take": 12130,
  "Ġacceleration": 20821,
  "record": 20416,
  "Ġlaund": 20653,
  "Ġdungeon": 26556,
  "Ġdiligence": 31094,
  "ĠPlant": 20223,
  "ĠMexico": 4840,
  "ĠBlind": 28173,
  "ĠTable": 11256,
  "Ġuninsured": 26697,
  "Ġcreators": 13573,
  "Ġmagical": 12726,
  "Ġcol": 938,
  "ĠHard": 8139,
  "law": 6175,
  "Ġ1932": 28138,
  "Ġdatab": 6127,
  "ĠBT": 21408,
  "ĠStrength": 29154,
  "Ġir": 4031,
  "ĠBecause": 4247,
  "ĠKaepernick": 23968,
  "Ġvote": 2389,
  "connected": 17934,
  "Ġhorrified": 28786,
  "Ġrents": 23505,
  "Ġpersonalities": 18313,
  "Ġjew": 13639,
  "tv": 20031,
  "ĠCrit": 11892,
  "Ġgenerosity": 27942,
  "untu": 11181,
  "Ï": 138,
  "Republicans": 19627,
  "Ġunusual": 7618,
  "uerto": 12266,
  "Ġthous": 2870,
  "Ġhearts": 12039,
  "Ġve": 1520,
  "ĠRelief": 28528,
  "ags": 4189,
  "ĠFighter": 19560,
  "Ġ*": 3318,
  "abl": 12558,
  "ĠUtt": 28713,
  "ĠMonaco": 27221,
  "ĠKling": 31728,
  "john": 31012,
  "ĠNational": 2033,
  "ader": 5108,
  "ĠSee": 6004,
  "ĠHungarian": 22390,
  "dri": 8680,
  "Ġinsisting": 18601,
  "Ġmarble": 30341,
  "ĠKaiser": 29320,
  "Ġindust": 1832,
  "ĠKB": 29190,
  "rency": 4978,
  "Ġ::": 13571,
  "Ġwrite": 3335,
  "Ġconvention": 5260,
  "52": 7804,
  "yrrha": 25055,
  "Ġstalk": 31112,
  "Ġeligibility": 21623,
  "Ġsworn": 19352,
  "Ġadulthood": 26570,
  "Ġpro": 333,
  "ĠYam": 18041,
  "Ġautom": 3673,
  "istan": 2841,
  "umers": 25642,
  "ĠOut": 4977,
  "Ġstereotypes": 19263,
  "Ġtariffs": 25825,
  "xml": 28076,
  "RELATED": 15648,
  "Ġformula": 11118,
  "Ġarticles": 6238,
  "cons": 5954,
  "ĠKre": 22962,
  "nom": 22421,
  "Ġcompetitor": 17244,
  "ĠGreek": 7716,
  "ceed": 2949,
  "Ġadvant": 3803,
  "ĠCivic": 26865,
  "Ġslid": 29946,
  "Ġdistributions": 24876,
  "ĠAnt": 3909,
  "Ġworm": 23914,
  "Ġdecision": 2086,
  "Ġwart": 26745,
  "cuts": 23603,
  "Ġ6": 898,
  "Ġpenetrate": 29199,
  "Ġfalse": 4599,
  "Ġgrassroots": 17096,
  "Ġparticipate": 7756,
  "ĠTruth": 14558,
  "iso": 29485,
  "Ġsignature": 9972,
  "Ġvariety": 5068,
  "ĠCitizen": 19969,
  "Ġbelly": 22015,
  "Ġmotorcy": 13602,
  "ĠMORE": 9606,
  "Ġhonesty": 21227,
  "Ġalley": 22712,
  "Ġseated": 22492,
  "uana": 3966,
  "include": 27044,
  "ĠGardner": 22335,
  "aan": 31872,
  "Ġreleg": 18745,
  "Ġtricks": 15237,
  "Ġsuite": 16832,
  "Ġchords": 30700,
  "oyle": 18168,
  "Ġgad": 19577,
  "Ġtall": 7386,
  "ĠRecord": 14731,
  "ĠCard": 6560,
  "Ġincompet": 19081,
  "ĠRein": 24698,
  "Ġbeautiful": 5186,
  "Ġsexuality": 14651,
  "IC": 3106,
  "iao": 20129,
  "Ġdigitally": 27981,
  "Ġclown": 26360,
  "Ġdetract": 25661,
  "oshop": 22907,
  "Ġarchive": 15698,
  "tery": 4698,
  "End": 16550,
  "ĠScholar": 17348,
  "Ġhistorically": 12265,
  "Ġaround": 993,
  "ĠJanuary": 2793,
  "Ġmini": 9380,
  "Ġpads": 22514,
  ",''": 17473,
  "Ġhonor": 6979,
  "Ġunited": 14817,
  "Ġachie": 3086,
  "roots": 14255,
  "roduction": 13462,
  "osi": 14780,
  "Be": 3645,
  "Ġdefy": 31345,
  "Ġgraphene": 31222,
  "Ġmorp": 31280,
  "ĠHU": 29410,
  "Ġhistoric": 7764,
  "ĠAirlines": 16357,
  "Ġworms": 29080,
  "ĠKazakh": 24506,
  "Ġvalidate": 26291,
  "Ġnasty": 15802,
  "Ġcrimin": 9647,
  "]]": 19719,
  "Ġrebell": 13968,
  "speed": 11319,
  "Ġfifty": 16522,
  "hh": 17427,
  "lost": 30425,
  "Ġpaying": 5158,
  "*.": 31385,
  "ĠDays": 15715,
  "Ġaddresses": 9774,
  "Ġim": 492,
  "Ġbacker": 31193,
  "ĠDefence": 14876,
  "Ġconsidering": 5567,
  "ously": 3261,
  "augh": 1519,
  "ĠSouls": 27867,
  "gs": 14766,
  "paralle": 29215,
  "Ġupdates": 5915,
  "lee": 9601,
  "Ġmoved": 3497,
  "priced": 26706,
  "ĠViv": 26098,
  "ĠFal": 9731,
  "ĠForce": 5517,
  "ĠByz": 31448,
  "Ġlimitation": 22829,
  "ĠCobb": 27756,
  "omi": 15545,
  "ertain": 1419,
  "Ġproviders": 8514,
  "Ġdeductions": 31768,
  "WH": 13882,
  "ĠSwed": 6205,
  "Ġ1954": 21833,
  "ĠRichardson": 17957,
  "OD": 5920,
  "bb": 15691,
  "Ġrequ": 1114,
  "Ġemploying": 23512,
  "ridge": 12446,
  "Ġalgorith": 7752,
  "small": 21727,
  "Ġpri": 1208,
  "Ġrooted": 16954,
  "Ġprecarious": 30566,
  "Ġsubmarines": 25838,
  "Ġfaced": 6105,
  "spe": 4591,
  "Ġpulled": 5575,
  "Ġlowering": 20160,
  "Ġstab": 14305,
  "ĠEach": 6335,
  "Ġstatements": 5936,
  "Inc": 19108,
  "Ġconcurrent": 23713,
  "Ġgum": 26079,
  "Ġconnectivity": 17256,
  "Maybe": 11708,
  "Ġaw": 3257,
  "Ġtransactions": 8968,
  "Ġdigging": 17223,
  "gly": 10897,
  "ĠCW": 22490,
  "Ġedges": 14056,
  "Ġcoined": 26163,
  "âĢĶâĢĶâĢĶâĢĶ": 8484,
  "Ġpivot": 28791,
  "ĠImage": 6402,
  "ĠPDT": 26124,
  "Ġatroc": 19082,
  "Ġdu": 6697,
  "Ġeyeb": 20401,
  "Ġduo": 15156,
  "Þ": 153,
  "Ã¸": 18394,
  "Ġfixed": 6756,
  "Ġacquisitions": 29022,
  "Ġcollectively": 17641,
  "ĠBolshe": 28977,
  "Ġroutine": 7290,
  "Log": 18588,
  "pless": 14960,
  "ÑģÐº": 27980,
  "ÙĪ": 23157,
  "Ġunveiling": 30890,
  "Ġemployees": 3955,
  "Ġdepending": 7497,
  "heim": 8838,
  "Ġmapped": 26265,
  "bing": 9911,
  "ĠLawrence": 12199,
  "42": 5735,
  "Ġuncle": 15964,
  "ĠNi": 11026,
  "bern": 27047,
  "Ġfascism": 25109,
  "Following": 11435,
  "Ġprotester": 26910,
  "Ġexports": 12942,
  "ĠTraff": 16903,
  "compass": 16136,
  "ries": 1518,
  "Ġprocedural": 24071,
  "istical": 20078,
  "CO": 9302,
  "intend": 7054,
  "Ġbrokers": 30833,
  "back": 1764,
  "Ġhooks": 27458,
  "ĠUP": 18170,
  "ink": 627,
  "Ġwildlife": 13550,
  "Ġ?": 9716,
  "Ġsubscriptions": 31803,
  "Ġphysicist": 24854,
  ")[": 22668,
  "Ġdad": 8853,
  "castle": 14979,
  "Ġsatir": 24084,
  "ĠBronx": 24875,
  "ification": 3015,
  "Ġgeek": 22976,
  "Ġsincerely": 27037,
  "ĠVol": 6181,
  "Ġgas": 3242,
  "Ġblitz": 25110,
  "Police": 7165,
  "İ": 193,
  "Ġinnings": 12748,
  "\"âĢĶ": 31030,
  "ram": 4003,
  "Ġgloss": 21387,
  "Ġprecinct": 25533,
  "Ġtrail": 5223,
  "Ġdupl": 15787,
  "Ġbathrooms": 26511,
  "Ġeurozone": 26194,
  "Ġturnaround": 26994,
  "ĠThomas": 5037,
  "aling": 5509,
  "cigarettes": 27279,
  "Ġburd": 8118,
  "Ġmandates": 26359,
  "Ġpi": 28356,
  "obar": 30947,
  "ĠMr": 1677,
  "engu": 13842,
  "stein": 5123,
  "Ġstruggled": 9478,
  "Ġsleep": 4333,
  "Ġprone": 17097,
  "ject": 751,
  "eman": 7981,
  "Ġcardiovascular": 24879,
  "zh": 14981,
  "ĠFrom": 3950,
  "Ġarrival": 9868,
  "Ġdefinitely": 4496,
  "Ġflawed": 15913,
  "Ġblink": 23874,
  "Ġpanels": 11505,
  "carry": 30909,
  "pace": 12941,
  "Ġhuge": 2807,
  "Ġfinger": 7982,
  "Ġwrongly": 26436,
  "zy": 7294,
  "educ": 15911,
  "oz": 9473,
  "Ġabuses": 15958,
  "Ġsample": 6809,
  "ĠZeal": 7430,
  "Ġutter": 10588,
  "Ġcalls": 3370,
  "Ġneighborhoods": 11303,
  "Ġrefusing": 12718,
  "ete": 14587,
  "Inf": 15523,
  "does": 21107,
  "Ġmatches": 6867,
  "Ġsummon": 15623,
  "Ġclam": 28680,
  "æľ": 21279,
  "Ġautomatically": 7461,
  "Ġfeeding": 13113,
  "gel": 13708,
  "Ġbureaucrat": 14789,
  "Ġrequire": 2745,
  "article": 22291,
  "gged": 10909,
  "ĠPrevention": 18388,
  "Ġstoring": 21546,
  "Ġvulner": 5393,
  "Ġneighbouring": 23162,
  "Ġpear": 28530,
  "asketball": 22850,
  "ski": 12786,
  "Ġpumps": 27222,
  "ĠChris": 4604,
  "ĠCanberra": 28133,
  "hene": 23681,
  "Ġinfluenced": 11004,
  "Ġinstitutional": 13329,
  "Ġtruth": 3763,
  "Ġvolunteered": 28467,
  "Ġlame": 27038,
  "agu": 11710,
  "duc": 6298,
  "uates": 11840,
  "ĠHere": 3626,
  "Ġpure": 6060,
  "ovan": 18251,
  "Ġcharges": 3975,
  "Ġshells": 20131,
  "Ġonline": 2439,
  "ĠTamil": 24915,
  "Å¡": 13992,
  "Ĵ": 197,
  "Children": 26645,
  "ĠScholars": 31132,
  "Ġfraction": 13064,
  "¬": 106,
  "ĠKru": 29481,
  "intern": 25949,
  "Ġreduced": 5519,
  "Com": 7079,
  "Ġmutual": 12764,
  "local": 16189,
  "Ġconsiders": 13284,
  "ĠISIL": 20263,
  "Where": 8528,
  "Ġcornerstone": 31636,
  "iday": 2190,
  "Ġlinem": 17224,
  "ĠLindsey": 23384,
  "Ġ185": 27645,
  "hester": 18028,
  "Ã¼r": 15436,
  "Ġcla": 27203,
  "weather": 20219,
  "Ĳ": 195,
  "~~": 11523,
  "Ġbandwidth": 19741,
  "cod": 21278,
  "Ġtrunk": 23548,
  "Sir": 24872,
  "Ġformat": 6736,
  "Ġspecimens": 26498,
  "ĠAdded": 16973,
  "G": 39,
  "ldom": 23751,
  "wild": 22123,
  "Ġpattern": 4156,
  "abee": 22510,
  "ĠEC": 11770,
  "Ġloan": 7257,
  "Ġfloat": 16263,
  "ĠStrauss": 30891,
  "inst": 10682,
  "ĠChamber": 14611,
  "Ġorange": 11798,
  "Ġhail": 29337,
  "ĠYorkers": 28700,
  "Ġrepeal": 10987,
  "Ġoperating": 5102,
  "Ġspecific": 2254,
  "OTO": 25238,
  "Ġtight": 5251,
  "access": 16796,
  "ĠDep": 2014,
  "Ġpredict": 3759,
  "esse": 28834,
  "Ġhealth": 1416,
  "ĠArena": 12073,
  "Ġcase": 1286,
  "Sc": 3999,
  "don": 9154,
  "Sy": 13096,
  "Ġearns": 25878,
  "Ġdiscontent": 30641,
  "apple": 24598,
  "ĠBank": 4463,
  "Ġ165": 29025,
  "Ġur": 2662,
  "Ġpreviously": 3797,
  "ï¼": 10250,
  "Ġscrat": 25427,
  "ĠMicrosoft": 4754,
  "Ġsegments": 17187,
  "Ġcounselor": 29559,
  "Nusra": 30562,
  "Ġge": 4570,
  "Ġdone": 1672,
  "Ġinmates": 13655,
  "Ġcandidates": 4644,
  "ĠDEC": 29128,
  "ĠLego": 25521,
  "ĠSum": 5974,
  "ĠCart": 16439,
  "Ġpleasure": 10791,
  "Ġkit": 6274,
  "Ġasthma": 27751,
  "Ġcocktails": 30623,
  "olve": 6437,
  "Ġriding": 9659,
  "Ġfigur": 28673,
  "ĠSexual": 22626,
  "Ġbak": 29649,
  "ĠSnyder": 17835,
  "ĠMoody": 28384,
  "Ġprey": 15346,
  "Ġgoodbye": 22722,
  "Ġfeeling": 4131,
  "enny": 8112,
  "Ġcan": 435,
  "green": 14794,
  "Ġchampions": 12924,
  "Ġassisted": 18244,
  "cifically": 17298,
  "Ġdign": 12381,
  "imity": 17811,
  "Ġduck": 18849,
  "Ġrecognition": 8083,
  "Ġdepos": 12090,
  "Getty": 7548,
  "ansen": 29225,
  "Ġtrajectory": 19149,
  "Ġpap": 19428,
  "Ġseeming": 28837,
  "Ġ23": 2962,
  "Ġcred": 2442,
  "ĠNR": 23058,
  "Swed": 31152,
  "Ġabundance": 18510,
  "ĠTap": 19718,
  "Ġsolve": 7512,
  "Ġvaluable": 7500,
  "room": 3150,
  "Oper": 19542,
  "1991": 29967,
  "Ġfulfilling": 23627,
  "Ġcouncillor": 29062,
  "ultan": 24930,
  "ĠMagic": 9600,
  "ĠGut": 22641,
  "ĠBobby": 14914,
  "Ġevaluating": 21299,
  "Ġdecomp": 23043,
  "hell": 16345,
  "Ġmemorial": 14293,
  "akin": 27104,
  "ĠVirginia": 5384,
  "Short": 16893,
  "ĠRegional": 14893,
  "ĠDick": 10285,
  "Ġdy": 19797,
  "Ġprosperous": 27959,
  "Ġpond": 17822,
  "ĠVarious": 29719,
  "ĠGray": 12737,
  "ĠTe": 1752,
  "É": 132,
  "NN": 4637,
  "Ġrestriction": 20179,
  "Ġredundant": 28105,
  "Ġsovereignty": 14854,
  "ĠPortug": 10574,
  "Ġ94": 15618,
  "ĠBy": 2757,
  "Ġcountless": 11843,
  "Ġrooftop": 27661,
  "Ġadmit": 7170,
  "ĠPatriots": 11496,
  "Author": 14588,
  "Ġsensible": 18254,
  "ĠRew": 21273,
  "ĠAns": 23639,
  "ĠWik": 6509,
  "Ġelectrons": 24164,
  "ĠKam": 13458,
  "Friday": 19987,
  "Ġpapers": 8536,
  "Ġerrors": 9445,
  "Ġappealed": 17741,
  "after": 9547,
  "Ġperce": 16031,
  "ĠBlank": 30005,
  "ĠCB": 10566,
  "Ġdeliber": 7911,
  "Cr": 14541,
  "ificant": 16369,
  "Ġ123": 24347,
  "ĠSon": 9851,
  "Ġpolicymakers": 22372,
  "ĠBureau": 9033,
  "adh": 17907,
  "ĠNorth": 1996,
  "Ġslightest": 25707,
  "significant": 29303,
  "areth": 24089,
  "Ġreunited": 29200,
  "ĠIN": 5691,
  "Ġbuilds": 11677,
  "Ġ12": 1465,
  "Ġdiamonds": 29858,
  "necess": 10126,
  "ĠPhilippines": 11260,
  "Ġministers": 10655,
  "Ġgrey": 14531,
  "Ġiron": 7421,
  "Ġcl": 490,
  "Ġprosper": 12082,
  "ĠATM": 28583,
  "VM": 16556,
  "ĠCounty": 3073,
  "Fort": 22251,
  "ĠMcGu": 25374,
  "flix": 8704,
  "ĠHospital": 8610,
  "Ġboy": 2872,
  "ĠRussian": 2978,
  "Ġheads": 6253,
  "Ġoccasion": 11011,
  "der": 1109,
  "Ġprep": 3029,
  "Ġattendance": 12634,
  "uments": 3040,
  "ratulations": 29438,
  "Pay": 20216,
  "undred": 2988,
  "Ġoptimize": 26240,
  "Ġbeaten": 11413,
  "ning": 682,
  "Ġcombo": 17941,
  "Install": 30575,
  "iblings": 17847,
  "Ġclick": 4921,
  "Ġdebating": 24554,
  "Ġjewel": 18654,
  "Ġ2008": 3103,
  "Ġaunt": 25079,
  "acha": 30811,
  "wan": 7055,
  "Ġtourist": 15208,
  "Ġdisappointing": 13651,
  "Ġcreature": 10368,
  "Ġnatives": 30547,
  "ĠBucc": 28442,
  "Ġcollects": 24988,
  "ĠBurns": 19803,
  "itar": 7463,
  "ĠIncre": 16353,
  "Ġcoding": 18290,
  "Ġcur": 1037,
  "ÃĥÃĤÃĥÃĤÃĥÃĤÃĥÃĤÃĥÃĤÃĥÃĤÃĥÃĤÃĥÃĤÃĥÃĤÃĥÃĤÃĥÃĤÃĥÃĤÃĥÃĤÃĥÃĤÃĥÃĤÃĥÃĤ": 26161,
  "ĠChild": 6748,
  "ĠAr": 1004,
  "ĠSense": 25657,
  "Ġstandards": 5036,
  "Ġbasket": 6699,
  "Jesus": 28657,
  "ĠCharacter": 23577,
  "Ġexploits": 22569,
  "ĠMick": 25982,
  "ĠMets": 19687,
  "Elect": 19815,
  "umin": 7944,
  "Ġ=>": 5257,
  "emin": 11848,
  "Ġ77": 12419,
  "Ġgone": 3454,
  "ĠRand": 7884,
  "ĠBM": 10155,
  "Ġdiplomatic": 10266,
  "Ġlaptops": 21564,
  "GRE": 31861,
  "Date": 18130,
  "hibition": 23221,
  "Ġkeyword": 24517,
  "Ġaway": 1428,
  "ĠPearson": 25890,
  "Ġsou": 22997,
  "tele": 31732,
  "ĠPerhaps": 8026,
  "î": 169,
  "ĠEnemy": 31755,
  "Ġgod": 6833,
  "Ġfew": 1091,
  "Ġsee": 727,
  "Ġcrowd": 3655,
  "Ġcensorship": 16325,
  "ĠRepresent": 9904,
  "ĠNorris": 26989,
  "Ġmat": 1367,
  "Ġtwo": 668,
  "ĠAvailable": 23263,
  "ĠACL": 14272,
  "ĠDHS": 23128,
  "arming": 17035,
  "liable": 23403,
  "Ġabsor": 9066,
  "ĠArch": 6780,
  "Ġscreaming": 13513,
  "abeth": 8760,
  "Ġlived": 5126,
  "ILE": 22230,
  "Ġfinals": 14537,
  "Ġcopyright": 5671,
  "priv": 16102,
  "Ġunreliable": 26444,
  "Science": 24787,
  "ĠHawks": 20355,
  "Ġwild": 4104,
  "erts": 9271,
  "Ġabout": 471,
  "Ġoverth": 15918,
  "ĠNotes": 18779,
  "ĠJapanese": 4879,
  "Ġsword": 12221,
  "ĠAviv": 22273,
  "Ġplac": 23178,
  "Ġdise": 3730,
  "Ġaide": 14456,
  "anny": 7381,
  "com": 869,
  ".....": 26829,
  "uing": 3289,
  "ĠRutgers": 24115,
  "Ġrehears": 24254,
  "Ġtechnicians": 31540,
  "avier": 23377,
  "Ġgroundwork": 31547,
  "Ġtrolls": 24403,
  "Chief": 20510,
  "ĠÂŃ": 17669,
  "ĠVolks": 24233,
  "Scroll": 24066,
  "bee": 20861,
  "ision": 1072,
  "western": 12382,
  "ĠExtreme": 26753,
  "Ġimplant": 29590,
  "ĠSims": 25113,
  "Ġoffset": 12933,
  "othe": 21110,
  "Ġsexy": 19187,
  "uffed": 16405,
  "Ġdeclared": 5847,
  "Ġnursing": 18374,
  "Ġ1961": 18448,
  "ĠBlack": 3004,
  "Ġrelig": 2449,
  "ghazi": 16826,
  "Ġmetal": 6396,
  "Ġ131": 31692,
  "Everyone": 14158,
  "Ġdialogue": 9546,
  "Ġacquitted": 28744,
  "igi": 29044,
  "Ġcongressional": 9117,
  "Ġdiagn": 6930,
  "Ġglac": 17353,
  "Ġtrivial": 18521,
  "ĠNev": 8916,
  "Ġrevel": 8777,
  "Ġvault": 20933,
  "Ġintermediate": 21675,
  "Ġnicknamed": 28658,
  "ĠPok": 12570,
  "ĠFeatures": 23256,
  "inke": 30598,
  "Ġexecuting": 22986,
  "verts": 22948,
  "example": 28525,
  "ĠJail": 22916,
  "Ġworkshops": 23836,
  "Ġwarning": 6322,
  "ĠHate": 27512,
  "Britain": 28167,
  "EG": 13095,
  "For": 1827,
  "Ġskills": 4857,
  "Ġarbitration": 24197,
  "iances": 15294,
  "ĠSoon": 14768,
  "ĠAmericas": 22304,
  "Ġfoot": 2039,
  "Ġtactical": 14779,
  "rugu": 24969,
  "ĠPerson": 9487,
  "Ġdrought": 14280,
  "Ġcommanding": 24488,
  "Ġnotified": 16548,
  "ĠCup": 4255,
  "interest": 7956,
  "x": 88,
  "Ġevasion": 29722,
  "192": 29018,
  "Ġhyd": 15571,
  "original": 15954,
  "Ġquar": 23376,
  "Ġaqu": 15248,
  "Ġhypocrisy": 22912,
  "inder": 7545,
  "Ġadvance": 5677,
  "Ġmath": 10040,
  "rub": 28967,
  "Ġcoverage": 4490,
  "Ġdifferential": 21582,
  "pared": 26602,
  "Ġentails": 30903,
  "rows": 9495,
  "Ġmoms": 28790,
  "Ġendorsements": 31897,
  "Ġdemonstrates": 14535,
  "ĠGOOD": 16773,
  "So": 2184,
  "Ġcancell": 21081,
  "ĠSeason": 8524,
  "Ġelsewhere": 7181,
  "Ġlargest": 3616,
  "Ġdurable": 24065,
  "bomb": 28161,
  "Ġgives": 3694,
  "ston": 3461,
  "Ġaber": 29877,
  "ĠAPIs": 20738,
  "Ġaccuracy": 10927,
  "Ġwherein": 26120,
  "ĠVale": 30138,
  "ĠLenn": 22518,
  "branded": 29159,
  "Ġtutorials": 27091,
  "Beyond": 20023,
  "Ġconfront": 6910,
  "Ġcouncil": 5376,
  "pler": 21639,
  "Ġquad": 14379,
  "Ġwounded": 9648,
  "onymous": 6777,
  "Ġleads": 5531,
  "Ġ~": 9378,
  "Ġpor": 12225,
  "ĠIbrahim": 23865,
  "appy": 8166,
  "ĠOz": 16321,
  "ĠTreatment": 29411,
  "DJ": 28075,
  "ĠWal": 5860,
  "Ġregarding": 5174,
  "aven": 5087,
  "Ġlag": 19793,
  "Ġseek": 3125,
  "ĠCle": 6644,
  "ushes": 25755,
  "ordered": 24209,
  "Ġupfront": 30316,
  "omet": 847,
  "Ġexceptional": 14559,
  "Ġprofiling": 26366,
  "Ġlocations": 6845,
  "ĠCed": 23481,
  "gi": 12661,
  "ulu": 14418,
  "ĠGaw": 27039,
  "Ġray": 30116,
  "Ġdorm": 17707,
  "ĠSol": 5294,
  "ĠColl": 7593,
  "Ġexplanations": 17549,
  "ampionship": 4547,
  "Ġfeatures": 3044,
  "Ġfavors": 20142,
  "Ġro": 636,
  "Ġnoticeably": 31282,
  "essional": 13502,
  "Ġnewest": 14358,
  "Ġsustainable": 10659,
  "Ġslogan": 18586,
  "ĠVel": 19002,
  "Ġinherent": 10480,
  "Writ": 13880,
  "Ġ20": 491,
  "Ġar": 558,
  "ĠHundreds": 26451,
  "Ġnumerous": 5800,
  "ĠSierra": 16121,
  "Ġsupposed": 3967,
  "Ġastronauts": 20563,
  "Ġextremism": 19616,
  "ĠSafe": 21633,
  "ayson": 28036,
  "Ġbeats": 17079,
  "Version": 27983,
  "tag": 19467,
  "ĠTwe": 26473,
  "onial": 24111,
  "Ġstarting": 3276,
  "0": 16,
  ".\"<|": 5827,
  "Ġsuspects": 9785,
  "Hack": 31087,
  "ĠConservative": 8463,
  "Ġpreceded": 25147,
  "Ġfigures": 4834,
  "Ġgraduating": 24324,
  "ĠColor": 5512,
  "ĠOlive": 31544,
  "ready": 1339,
  "azi": 6723,
  "Ġwarriors": 20424,
  "Ġbattle": 3474,
  "Ġatmosp": 6130,
  "Ġowed": 18992,
  "Ġnomination": 8864,
  "oj": 11625,
  "often": 25003,
  "Ġplainly": 31035,
  "achment": 11205,
  "Ġfarewell": 29848,
  "ĠEconomy": 21671,
  "Ġhypothesis": 13321,
  "Then": 6220,
  "ĠCrosby": 26441,
  "Ġsheets": 15758,
  "ently": 2146,
  "ĠOpt": 17023,
  "Ġpowerful": 3595,
  "aways": 20851,
  "Ġweighs": 22319,
  "ĠMohamed": 20146,
  "Ġhundred": 3221,
  "Ġcart": 6588,
  "ĠWaste": 29676,
  "ĠClean": 15253,
  "box": 3768,
  "ĠTex": 3096,
  "Ġdean": 28319,
  "iph": 13312,
  "Ġsubstantially": 14247,
  "Ġremorse": 31142,
  "ĠGaza": 8631,
  "Ġsail": 13786,
  "ĠTaiwan": 11810,
  ".\"": 681,
  "Chat": 29736,
  "KK": 15625,
  "Ġcount": 830,
  "ĠÂ£": 3683,
  "ĠSarah": 9454,
  "Red": 10728,
  "Ġdramatic": 8520,
  "Ġanyway": 6817,
  "Ġpetition": 8644,
  "atellite": 27218,
  "stairs": 18569,
  "Ġ+": 2581,
  "ĠMo": 4016,
  "Ġconsultation": 17542,
  "ĠEmergency": 18520,
  "Ġflavors": 17586,
  "New": 3707,
  "ĠArcade": 31042,
  "ĠBil": 21422,
  "Ġlod": 19173,
  "Ġdangerously": 27810,
  "low": 8697,
  "ilation": 11129,
  "Ġparked": 17139,
  "index": 15991,
  "Ġlisteners": 19906,
  "ĠReally": 16276,
  "game": 6415,
  "Ġten": 3465,
  "ĠStephens": 29895,
  "were": 19781,
  "ġ": 178,
  "omen": 3471,
  "Ġgrown": 6486,
  "uted": 8720,
  "Ġepile": 27164,
  "imet": 26786,
  "Ġmortg": 9327,
  "Gu": 10545,
  "Ġrapper": 20777,
  "Ġshark": 17030,
  "ĠSpeed": 13247,
  "Ġoccasions": 11347,
  "ĠiPod": 26292,
  "Ġobstruction": 23616,
  "edge": 14747,
  "thing": 1153,
  "Ġinhabited": 30033,
  "ĠHugh": 21630,
  "ĠCC": 10975,
  "ĠAlliance": 10591,
  "astered": 29465,
  "Ġdesire": 6064,
  "Ġump": 30459,
  "Ġprofessionals": 10422,
  "oat": 18657,
  "Ġdomestic": 5056,
  "fter": 577,
  "inyl": 19638,
  "force": 2948,
  "Ġaccusation": 21975,
  "ĠCredit": 9697,
  "Ġwishes": 13006,
  "ĠRafael": 24663,
  "Ġgall": 7629,
  "Ġrice": 12112,
  "Ġtarg": 2091,
  "ossier": 24941,
  "Ġarr": 9997,
  "Ġroadmap": 31218,
  "Ġefficiency": 8785,
  "DB": 13163,
  "Ġpizza": 13421,
  "Ġexecute": 13098,
  "Ġpast": 1449,
  "Ult": 15761,
  "Ġagreements": 10962,
  "prising": 12698,
  "ĠNathan": 15899,
  "Ġreve": 2465,
  "Charles": 24949,
  "Ġacknowledging": 21120,
  "Ġfabricated": 28326,
  "ĠBurton": 22212,
  "Ġdilemma": 22213,
  "Ġeffective": 4210,
  "Ġ2022": 26416,
  "ĠViet": 7552,
  "Ġthankful": 22235,
  "Ġacadem": 5064,
  "Ġmention": 2976,
  "Ġfeed": 3691,
  "ĠÃĹ": 12617,
  "ilities": 2505,
  "Hey": 10691,
  "Ġredevelop": 24825,
  "ĠSleep": 22730,
  "ĠSM": 13147,
  "gr": 848,
  "food": 18777,
  "Ġreleased": 2189,
  "Ġbarbecue": 30942,
  "Ġtsun": 21551,
  "ality": 1504,
  "vi": 10278,
  "overy": 4663,
  "iron": 1798,
  "Ġdifficult": 2271,
  "ollow": 946,
  "Ġalive": 6770,
  "leton": 12385,
  "Ġoverhead": 16476,
  "Ġminute": 5562,
  "Ne": 5358,
  "istine": 28748,
  "ĠCoyotes": 30599,
  "ĠAnaheim": 24327,
  "ĠLad": 11500,
  "Ġstrap": 26609,
  "ĠSpy": 26720,
  "ĠFig": 11735,
  "aber": 30712,
  "Ġvoter": 8787,
  "Ġ\\": 5891,
  "raising": 27129,
  "ĠSidney": 29821,
  "Ġskelet": 22509,
  "Ġloose": 9290,
  "ĠEnergy": 6629,
  "Ġexcellence": 23702,
  "Ġsurveys": 14656,
  "Ġsmiling": 17138,
  "Ġunanswered": 27821,
  "ĠExxon": 21532,
  "Ġsubsidies": 12480,
  "Ġwage": 6805,
  "ĠTories": 18548,
  "Ġadvertise": 29594,
  "Ġquake": 27788,
  "Ġtwists": 28666,
  "ĠCapitol": 10482,
  "ĠLeonard": 17618,
  "Ġasking": 4134,
  "ĠEU": 3772,
  "Ġconspiracy": 8527,
  "ĠWar": 1982,
  "Few": 25554,
  "Ġpromises": 8797,
  "Ġcoward": 25050,
  "skin": 22847,
  "Ġalumin": 15459,
  "Ġcontroversies": 29482,
  "Ġpending": 11883,
  "Ġowners": 3911,
  "ĠJohnson": 4317,
  "Ġspecialist": 13831,
  "Ġtill": 12350,
  "particularly": 26902,
  "Ġextensively": 18110,
  "Ġsuspended": 8554,
  "communication": 31769,
  "ĠMarketing": 22871,
  "Ġpointed": 5419,
  "ets": 1018,
  "ablished": 20548,
  "Ġhandling": 8692,
  "Ġconfirming": 20365,
  "Ġpaints": 28761,
  "ĠAmazon": 5277,
  "Ġinstit": 5280,
  "Ġbeam": 18773,
  "Ġvend": 10225,
  "ĠIMA": 28463,
  "ened": 2864,
  "Sm": 8319,
  "Ġsubsidy": 23190,
  "ĠAnimals": 26629,
  "ĠSie": 17607,
  "waves": 25857,
  "ĠMu": 7708,
  "ario": 4480,
  "Ġundes": 26782,
  "Ġretro": 14866,
  "From": 5139,
  "Ġdeclining": 14415,
  "zed": 8699,
  "Ġcommissioners": 27501,
  "Ġmodeling": 20345,
  "Ġnickname": 19268,
  "),[": 30836,
  "ustain": 16389,
  "ketch": 23260,
  "raining": 23145,
  "Ġnationalists": 24964,
  "Ġcycles": 15483,
  "Ġnic": 9723,
  "billion": 18534,
  "Ġtheory": 4226,
  "Ġbloggers": 22450,
  "Ġunbelievable": 20551,
  "Ġexcuse": 11362,
  "Ġregression": 21717,
  "amy": 15183,
  "Ġsubmission": 15689,
  "Ġdesigner": 10336,
  "ĠMe": 2504,
  "Ġdesperation": 26601,
  "Ġmagn": 7874,
  "ge": 436,
  "ĠRegion": 18238,
  "riel": 14045,
  "Ġnetwork": 2783,
  "Ġsupplement": 11900,
  "Ġmotives": 19853,
  "ĠFalcon": 19282,
  "AC": 2997,
  "Ġdispos": 12623,
  "Ġlikelihood": 13595,
  "ĠLaf": 26661,
  "Ġsimply": 2260,
  "Ġ2": 350,
  "Ġcrystals": 27316,
  "akespeare": 17761,
  "ãĢĤ": 14688,
  "Ġsecretly": 16077,
  "GW": 31380,
  "ĠBeijing": 9203,
  "Ġthereby": 12984,
  "Ġbased": 1829,
  "Ġburgeoning": 29291,
  "ĠGlobe": 15314,
  "Ġcorruption": 7639,
  "FX": 24618,
  "ĠSyri": 2495,
  "Ġqual": 4097,
  "isine": 24231,
  "Ġlegal": 2346,
  "ritional": 23104,
  "Ġbush": 23789,
  "Ġoptions": 3925,
  "Ġdozens": 7763,
  "ĠÏĦ": 31131,
  "ĠNov": 5515,
  "ĠOrgan": 7291,
  "Wal": 22165,
  "Ġpaintings": 18460,
  "ĠAlexa": 28847,
  "ousands": 16676,
  "Ġlawyers": 7495,
  "Ġgun": 2245,
  "Ġtheorists": 27058,
  "ĠTerrit": 21148,
  "Ġballs": 11171,
  "Ġvigorous": 30714,
  "Ġappointment": 12037,
  "Ter": 15355,
  "ĠMcConnell": 12593,
  "Ġillustrates": 20040,
  "Quick": 24600,
  "ĠStanding": 21871,
  "Martin": 21617,
  "Ġaltitude": 19801,
  "ism": 880,
  "les": 783,
  "Ġbusy": 7587,
  "EO": 3924,
  "lat": 18627,
  "Ġdefeated": 9657,
  "Ġ401": 29593,
  "Ġsymptom": 25805,
  "ĠHaley": 25421,
  "bl": 2859,
  "ĠNon": 10518,
  "Death": 22011,
  "stat": 27237,
  "Results": 27951,
  "ĠMaher": 29261,
  "itimate": 24632,
  "ĠHungary": 16620,
  "Ġsubmitting": 25782,
  "string": 12017,
  "Ġattorney": 5268,
  "ĠGra": 6446,
  "Ġtechnological": 11986,
  "Ġbald": 26519,
  "Ġfrustrating": 14155,
  "rant": 5851,
  "see": 4019,
  "Ġorient": 10755,
  "Ġremarks": 8377,
  "ons": 656,
  "ĠBenedict": 23526,
  "Ġchorus": 21960,
  "LGBT": 28212,
  "Ġconserv": 3110,
  "ĠPE": 20570,
  "109": 22370,
  "ĠHull": 24806,
  "ĠGMO": 29422,
  "Ġsett": 4542,
  "ĠSupreme": 4880,
  "Ġ1939": 21169,
  "Ġimpunity": 29556,
  "Ġapplauded": 29583,
  "ĠGan": 29638,
  "Ġirrational": 21484,
  "Ġarrays": 27588,
  "kel": 6523,
  "ois": 9398,
  "Ġrenting": 29061,
  "Ġterrorists": 8211,
  "Ġsurely": 9357,
  "Ġwisely": 29968,
  "ATCH": 10844,
  "ĠStock": 11178,
  "Ġesc": 3670,
  "ĠClaire": 22282,
  "Ġmurdered": 11650,
  "Ġconfirmation": 12198,
  "Ġspecialty": 23137,
  "for": 1589,
  "ĠBrus": 12169,
  "ashington": 2059,
  "Ġsquat": 22082,
  "Ġsensitivity": 14990,
  "ĠLock": 14000,
  "ĠMaple": 20473,
  "ature": 1320,
  "Ġcoron": 28175,
  "Ġtrig": 5426,
  "ĠManuel": 20951,
  "Ġrank": 4070,
  "dates": 24376,
  "ingham": 19869,
  "Ġ1968": 13991,
  "hire": 10576,
  "effective": 26502,
  "Ġderivative": 30471,
  "ĠKh": 4802,
  "Ġsculpture": 25027,
  "identally": 20824,
  "Ġfac": 1603,
  "Ġunpredict": 17232,
  "Ġsecuring": 16957,
  "million": 11230,
  "Ġfoam": 23301,
  "ĠProgramming": 31853,
  "ĠLav": 18748,
  "Ġuprising": 19134,
  "da": 7576,
  "Ġhelicop": 9921,
  "Ġcompromises": 31746,
  "ĠSqu": 5815,
  "rolling": 14185,
  "ĠGH": 30843,
  "Ġinteractions": 11508,
  "ĠAston": 25630,
  "Ġmost": 684,
  "Ġpossess": 9480,
  "Ġpitcher": 14590,
  "Ġview": 1481,
  "Ġfit": 3301,
  "Ġfortune": 15382,
  "ml": 6426,
  "Ġwallet": 13065,
  "Ġvaguely": 27403,
  "ĠHapp": 19521,
  "Ġbattalion": 31365,
  "Ġfug": 28408,
  "Ġencouraged": 8735,
  "Ġobsess": 21462,
  "ende": 29874,
  "ĠMadison": 13042,
  "Ġrenown": 18180,
  "Ġhandcuffed": 31295,
  "ĠGoldberg": 24025,
  "Ġkeyboard": 10571,
  "urrent": 7719,
  "ĠIndex": 15178,
  "endered": 26572,
  "Google": 9710,
  "ĠPOLIT": 24642,
  "ash": 1100,
  "GBT": 7006,
  "Health": 17747,
  "ë": 166,
  "Ġvagina": 29725,
  "Ġbystand": 27820,
  "ĠInstant": 28055,
  "ĠGuardian": 8430,
  "Ġhumiliating": 31790,
  "ĠNoah": 18015,
  "Ġdidn": 1302,
  "con": 1012,
  "Ġarrangement": 13498,
  "Ġreceptors": 22065,
  "reb": 22771,
  "Ġhemp": 22756,
  "ĠCenter": 3090,
  "¢": 96,
  "Ġsucked": 25948,
  "Ġallocate": 30456,
  "ĠAuckland": 25203,
  "Bay": 14286,
  "Ġsteam": 13353,
  "Ġcourts": 7202,
  "ĠBrewers": 27884,
  "Ġdefines": 15702,
  "Ġdeb": 1526,
  "uilding": 6901,
  "Ġclay": 23155,
  "ills": 2603,
  "Ġrespiratory": 24127,
  "Ġtriple": 13582,
  "ĠChand": 15593,
  "Ġadapter": 27270,
  "analysis": 24797,
  "Ġvoy": 21743,
  "ĠSouth": 2196,
  "house": 4457,
  "Ġauthors": 6485,
  "ĠRoad": 5687,
  "pired": 5495,
  "race": 17203,
  "ĠMyster": 21211,
  "Ġ63": 11130,
  "itness": 3964,
  "ĠMurray": 9922,
  "iak": 27556,
  "Ġmeaningless": 21176,
  "ĠVictory": 22696,
  "Ġnaval": 15740,
  "ĠBIG": 30740,
  "actory": 12238,
  "Ġmeal": 10485,
  "Tal": 28336,
  "Ġimpartial": 29195,
  "aba": 14360,
  "Ġcelebrities": 17029,
  "ĠHamp": 10577,
  "RB": 24802,
  "Ġbicy": 11477,
  "Ġphys": 2337,
  "ĠHag": 21389,
  "Ġ58": 10311,
  "Sources": 18568,
  "ĠPerth": 24132,
  "ĠNetflix": 9505,
  "Ġmulti": 5025,
  "Ġvolunteer": 12555,
  "ils": 4991,
  "Ġgag": 28895,
  "ĠCanon": 21418,
  "Ġcompliance": 12890,
  "Ġmultinational": 21992,
  "bart": 12615,
  "Ġages": 9500,
  "Ġalleged": 3521,
  "Ġdefic": 14745,
  "icides": 15990,
  "Ġaloud": 31627,
  "Ġfriendly": 8160,
  "ĠOctober": 2911,
  "Ġamenities": 31751,
  "Ġris": 1922,
  "ĠRockies": 27757,
  "strong": 10602,
  "Ġattack": 1295,
  "ustom": 1894,
  "Ġagriculture": 11980,
  "oos": 24144,
  "Christian": 17257,
  "inson": 6896,
  "Ġshortage": 15273,
  "Ġhelps": 5281,
  "SON": 13769,
  "Ġhelicopters": 18914,
  "eals": 9526,
  "ĠÍ": 31699,
  "ilda": 28624,
  "Ġpromoted": 11055,
  "Ġnumbered": 25663,
  "Ġthermal": 18347,
  "Hello": 16887,
  "Ġdeferred": 30415,
  "Ġacademic": 7452,
  "ACT": 17063,
  "Ġcholesterol": 23154,
  "ĠNorm": 10792,
  "ĠAvenue": 7556,
  "Ġoutline": 18886,
  "ĠParliamentary": 31502,
  "Ġflick": 18814,
  "ĠBears": 12798,
  "Ġglob": 13562,
  "Ġeggs": 10014,
  "Ġta": 17638,
  "ĠNL": 20282,
  "llah": 17945,
  "ĠWhat": 1885,
  "Ġ750": 22197,
  "owners": 13083,
  "eping": 7133,
  "ĠVietnamese": 18704,
  "Ġstemming": 27647,
  "Ġsear": 9455,
  "Ġmountains": 12093,
  "Ġinvasive": 23183,
  "Ġnuclear": 3567,
  "Ġsanctioned": 25535,
  "Ġdiffer": 14284,
  "Ġcriminals": 10763,
  "ĠUV": 26821,
  "Americ": 4583,
  "Ġproven": 8037,
  "ĠExperts": 30525,
  "Ġincumbent": 17474,
  "ĠSide": 12386,
  "Ġsoundtrack": 17086,
  "Ġsettlement": 8228,
  "Ã¨": 10742,
  "iological": 16247,
  "Ġridiculous": 10115,
  "Ġelephants": 22721,
  "ynchronous": 29716,
  "Ġfireworks": 22560,
  "rad": 4277,
  "ĠHands": 28059,
  "Ġbelieved": 4078,
  "Ġcancellation": 24141,
  "Ġrecognizing": 19532,
  "ĠJamie": 15159,
  "Ep": 19019,
  "Ġpopulated": 18819,
  "Ġdeclar": 24072,
  "Ġind": 733,
  "amins": 28083,
  "ĠBle": 21274,
  "Ġdelighted": 17828,
  "Ġcoincided": 31191,
  "Ġapproving": 27536,
  "Ġsole": 6947,
  "oad": 1485,
  "ĠPresent": 22736,
  "isy": 23617,
  "Ġutterly": 14931,
  "Ġcondem": 6992,
  "uble": 28432,
  "ĠNRA": 19077,
  "false": 21053,
  "Ġidentity": 4889,
  "ä»": 25600,
  "ĠGe": 2166,
  "ĠpÃ¥": 30473,
  "Ġcreations": 26263,
  "ĠPunjab": 25114,
  "Ġcharm": 20725,
  "Ġsensational": 26157,
  "Across": 31878,
  "Ġn": 257,
  "Ġgeneric": 14681,
  "black": 13999,
  "ĠSchwartz": 24368,
  "ĠRevolution": 8557,
  "ĠPER": 29037,
  "ĠService": 5101,
  "ĠBattery": 28677,
  "Ġnoticeable": 19633,
  "Ġnurses": 18034,
  "Ġclearer": 19558,
  "Ġco": 640,
  "ogle": 2284,
  "ĠToyota": 16752,
  "Ġsimplify": 27289,
  "ĠRib": 30040,
  "default": 23786,
  "Ġcounted": 13618,
  "olithic": 25900,
  "Ġemot": 3858,
  "Ġimmune": 11154,
  "ogenous": 30411,
  "ĠAy": 11962,
  "ĠIB": 31864,
  "Mike": 14076,
  "ĠShaw": 15928,
  "Ġhighs": 22718,
  "Ġharassing": 30743,
  "Ġhung": 9008,
  "Ġassass": 9485,
  "omical": 20178,
  "Ġredevelopment": 31371,
  "file": 11984,
  "Ġstressful": 24199,
  "Ġfulfill": 14308,
  "wat": 26195,
  "Ġfinances": 16875,
  "aleigh": 26688,
  "neck": 27117,
  "Ġbanner": 15406,
  "ĠCar": 1720,
  "Ġpillar": 30404,
  "Ġenlarge": 25370,
  "ym": 4996,
  "ĠFlore": 23442,
  "ĠStill": 7592,
  "Ġflipping": 29760,
  "Ġgunmen": 26709,
  "repre": 8518,
  "Ġthrowing": 8649,
  "ÃĥÃĤÃĥÃĤÃĥÃĤÃĥÃĤ": 11001,
  "Ġspacecraft": 12420,
  "ĠWonder": 14498,
  "ĠOld": 6599,
  "Ġjet": 11125,
  "ĠNation": 7601,
  "Ġseveral": 1635,
  "ĠNy": 18722,
  "Bas": 17341,
  "Ġflooded": 19162,
  "Ġfigure": 3470,
  "Ġruthless": 26172,
  "Ġfl": 802,
  "Ġmentions": 14850,
  "ĠShop": 18695,
  "hurst": 28693,
  "set": 3025,
  "ĠSev": 30958,
  "Ġsignificantly": 5451,
  "Our": 4806,
  "Ġpolicemen": 27067,
  "Ġcorrespond": 6227,
  "ĠWorldwide": 31092,
  "Ġbattery": 6751,
  "Ġtoo": 1107,
  "Ġconsuming": 17815,
  "Ġdefenseman": 23312,
  "ĠFact": 20858,
  "Ġolder": 4621,
  "Ġmeddling": 27318,
  "um": 360,
  "ĠEthiopia": 25891,
  "ĠGender": 26062,
  "ĠGDP": 10304,
  "Fair": 29412,
  "Ġof": 244,
  "Ġfestival": 8961,
  "ĠTreasure": 25907,
  "aspberry": 19342,
  "tees": 13013,
  "Ġexerc": 4645,
  "Ġpiano": 17659,
  "Ġcreative": 6242,
  "Ġdates": 9107,
  "Ġsurgical": 22404,
  "ĠL": 387,
  "Ġca": 1799,
  "Ġbad": 1937,
  "ĠNewton": 15153,
  "Ġwolves": 21800,
  "nce": 1203,
  "ĠSingh": 11639,
  "Ġcomponents": 7173,
  "Ġ": 177,
  "ERN": 25256,
  "Ġdriver": 4576,
  "ĠMetal": 17481,
  "ifying": 3958,
  "Ġfarmer": 16444,
  "ĠHansen": 22551,
  "Ġscrut": 9872,
  "ĠTest": 7419,
  "United": 16678,
  "aign": 1395,
  "Ġinspector": 20984,
  "Ġturtle": 29467,
  "ĠFund": 7921,
  "âĸĪâĸĪâĸĪâĸĪ": 26305,
  "ooter": 22995,
  "Ġinherit": 18539,
  "Ġme": 466,
  "Ġcrushed": 17850,
  "Ġtranslation": 11816,
  "ĠTraining": 16554,
  "Ġceremon": 17720,
  "Ġadop": 4071,
  "agine": 11078,
  "ĠCountry": 13560,
  "Ġmultiply": 31305,
  "ĠKer": 16466,
  "Ġairports": 18052,
  "WA": 13598,
  "ĠJunior": 18535,
  "Ġbrackets": 30477,
  "ĠPrem": 6257,
  "Ġsuperf": 20081,
  "anol": 21076,
  "Ġblows": 20535,
  "ĠJesus": 6520,
  "anga": 22016,
  "Ġresign": 8516,
  "selling": 13951,
  "olitics": 17681,
  "Ġsubmer": 29996,
  "Ġbeforehand": 26285,
  "VID": 15247,
  "ĠMinutes": 24661,
  "Ġstruggling": 7891,
  "Ġheels": 17126,
  "Ġphil": 4751,
  "Ġtraumatic": 23368,
  "India": 17067,
  "Ġherd": 25466,
  "ĠEngland": 3962,
  "Ġrevision": 19028,
  "Ġbiodiversity": 28584,
  "odi": 24204,
  "Ġpar": 1586,
  "Ġusing": 1315,
  "Ġstadiums": 28732,
  "ĠTennessee": 9987,
  "Ġnecessity": 14904,
  "Ġsemester": 24998,
  "Ġpresented": 5254,
  "Action": 23869,
  "Ġdimin": 11123,
  "Ġcartels": 28943,
  "Ġstadium": 7973,
  "ccording": 2378,
  "setting": 30465,
  "ĠJoel": 16561,
  "Ġdinner": 7970,
  "Ġtherm": 23322,
  "say": 17363,
  "Ġtheirs": 20497,
  "esta": 15945,
  ").<|": 19058,
  "Love": 18541,
  "ĠJerome": 30819,
  "Ġobserves": 30608,
  "Ġbeverage": 23992,
  "uh": 9020,
  "ĠMarshall": 11903,
  "enge": 3313,
  "Ġounces": 25619,
  "Ġvol": 2529,
  "igan": 4835,
  "NA": 4536,
  "ĠMassachusetts": 8487,
  "Ġ1": 340,
  "Ġ88": 13407,
  "owa": 7024,
  "Ġcenter": 3420,
  "ropic": 31809,
  "%,": 7987,
  "Ġvariation": 13116,
  "Ġconfer": 27451,
  "Ġwhist": 30084,
  "Ġexplicit": 7692,
  "rent": 1111,
  "âĸ": 6890,
  "Ġcarried": 5015,
  "System": 23351,
  "ĠAbr": 18038,
  "Ġ!": 10061,
  "Ġpets": 18872,
  "bottom": 26949,
  "ĠSlate": 26802,
  "ĠHeat": 11896,
  "ĠCatal": 16199,
  "igure": 6917,
  "Ġtermin": 6521,
  "ĠCRE": 31710,
  "ASH": 11674,
  "ĠHyd": 29868,
  "Ġfitness": 12719,
  "aida": 23707,
  "Ġcounties": 12346,
  "Ġspear": 18005,
  "hyth": 11835,
  "ĠMedicine": 12216,
  "lin": 2822,
  "King": 16367,
  "NI": 24123,
  "108": 23508,
  "Ġforcefully": 31936,
  "Î¹": 20888,
  "Ġsum": 2007,
  "ifferent": 12870,
  "Ġpenalty": 7355,
  "Ġessence": 12966,
  "Ġreveal": 2894,
  "ĠAnonymous": 18116,
  "vation": 13185,
  "Ġairport": 7828,
  "ĠFleet": 22461,
  "Ġoy": 31811,
  "Ġactivism": 16923,
  "Ġexem": 8174,
  "ĠÃ¤": 30550,
  "Ġstack": 10533,
  "Ġresearch": 2063,
  "Ġ109": 23094,
  "ĠStephen": 6826,
  "igious": 9624,
  "Ġauto": 9063,
  "Ġexponentially": 28675,
  "Ġimpuls": 23382,
  "mn": 12529,
  "ĠAdams": 10713,
  "iterranean": 16228,
  "ĠShip": 20516,
  "ĠHil": 23909,
  "Ġobst": 7738,
  "olds": 9301,
  "Ġinterview": 2266,
  "Ġessays": 22926,
  "Ġconversation": 4788,
  "ĠAssistance": 28750,
  "ĠWashington": 2169,
  "ĠCorps": 12051,
  "Ġlegend": 7936,
  "ĠSemin": 31744,
  "AM": 3253,
  "Ġvacc": 6984,
  "Ġbaff": 23086,
  "ĠSask": 18917,
  "ĠEnc": 27642,
  "iw": 31425,
  "Ġjudging": 20994,
  "Ġstudent": 3412,
  "Gl": 10630,
  "Ġunsupp": 17872,
  "endar": 10252,
  "mph": 17870,
  "iners": 18207,
  "pling": 12091,
  "Ġinfield": 31337,
  "Ġst": 294,
  "Ġexistential": 22299,
  "irie": 27027,
  "ometric": 21587,
  "ĠParty": 3078,
  "ĠMontana": 15978,
  "Ġrig": 7167,
  "ĠBraves": 22744,
  "lic": 596,
  "Ġinsults": 24472,
  "Ġpresenter": 31028,
  "ĠXP": 19518,
  "ĠBehind": 20836,
  "utenant": 15072,
  "Ġcyl": 20211,
  "Ġtrou": 3981,
  "Ġimplementations": 25195,
  "ples": 2590,
  "ĠTottenham": 18556,
  "ĠMeans": 30256,
  "Ġrelaxing": 28331,
  "ĠBaptist": 19124,
  "ĠGiant": 21561,
  "Ġinvolvement": 8201,
  "Ġresume": 13924,
  "ono": 27831,
  "ich": 442,
  "Ġburgl": 22944,
  "ARS": 23499,
  "ĠTrevor": 21646,
  "bles": 12652,
  "Ġdrugs": 4511,
  "ĠHuss": 29074,
  "Ġenabled": 10977,
  "ĠDW": 27015,
  "oll": 749,
  "being": 11091,
  "Ġschemes": 14432,
  "Ġobtain": 4307,
  "ĠLabour": 5824,
  "mass": 20605,
  "ĠIniti": 16081,
  "Ġshame": 9297,
  "urp": 30646,
  "inges": 23847,
  "Ġcollector": 22244,
  "Ġattorneys": 11617,
  "ashi": 15151,
  "Ġconsulted": 23504,
  "ĠRBI": 19412,
  "Ġsubscribe": 10561,
  "pub": 25185,
  "Ġdid": 692,
  "Ġlie": 6260,
  "ĠFour": 6962,
  "Ġshade": 20014,
  "ica": 3979,
  "ICA": 23202,
  "ĠGrey": 15567,
  "ĠJays": 18218,
  "Ġby": 374,
  "Ġonset": 21808,
  "tec": 27685,
  "ĠPlace": 11077,
  "laim": 11317,
  "Ġmart": 11093,
  "Ġtrials": 9638,
  "ĠOrganization": 11431,
  "Ġpitching": 15947,
  "ĠDawkins": 30125,
  "Ġburn": 5668,
  "Ġcarve": 31207,
  "Ġcyt": 30759,
  "ĠSound": 10101,
  "ioned": 14129,
  "Ġstud": 884,
  "eness": 10078,
  "Ð¼": 12647,
  "Ġcalf": 29666,
  "ĠFeel": 22234,
  "Ġcloser": 5175,
  "Ġexhib": 6804,
  "ĠNetworks": 25431,
  "ï¿½ï¿½": 17932,
  "heres": 19256,
  "Ġsocially": 15509,
  "valid": 12557,
  "ĠStein": 12452,
  "Ġdisplaying": 19678,
  "Ġsucceeds": 29317,
  "oming": 6462,
  "Ġbrown": 8755,
  "Ġ1998": 7940,
  "olog": 865,
  "ĠCur": 5477,
  "Ġtransporting": 30221,
  "Config": 29278,
  "Ġeventual": 15671,
  "Ġopponent": 6394,
  "opyright": 9933,
  "Ġhonour": 14888,
  "ICE": 11661,
  "ĠSp": 1484,
  "Ġsignificant": 2259,
  "ipment": 30399,
  "ĠXi": 17235,
  "Joe": 16891,
  "ĠVick": 26811,
  "Ġtri": 1262,
  "Ġdoor": 3737,
  "Ðµ": 4640,
  "ĠOH": 25929,
  "Ġduration": 12293,
  "Ġtimber": 28570,
  "Ġunp": 7255,
  "ĠLords": 23703,
  "ĠBernardino": 29281,
  "ĠEgyptians": 28316,
  "Ġeyebrows": 26313,
  "ĠTaj": 26220,
  "ĠPers": 10222,
  "ulf": 4593,
  "Ġrepublic": 13844,
  "Ġscramble": 30094,
  "Ġlearns": 22033,
  "55": 4652,
  "ependent": 7863,
  "Process": 31441,
  "ĠFitz": 14722,
  "Ġliquidity": 25980,
  "dar": 25257,
  "Ġconfiguration": 10514,
  "Subscribe": 18967,
  "ĠJes": 5213,
  "iat": 6038,
  "ãĢĮ": 31490,
  "ĠBl": 1248,
  "Ġenforce": 4077,
  "Ġstreet": 4119,
  "According": 3742,
  "During": 5894,
  "Ġsafety": 3450,
  "Ġreads": 8629,
  "Ġproposing": 19216,
  "ense": 1032,
  "coins": 13429,
  "Ġlaundering": 22765,
  "ĠNBA": 6179,
  "Ġwrestler": 28447,
  "ĠInternet": 3868,
  "ĠFactory": 23091,
  "Ġmechanical": 12566,
  "IND": 21600,
  "Ġkeywords": 29170,
  "ĠHu": 10849,
  "Ġsa": 400,
  "Ware": 31464,
  "59": 6837,
  "Ġvisited": 7528,
  "Ġdictatorship": 21965,
  "Ġstructure": 4533,
  "Remember": 15793,
  "ĠBard": 29113,
  "Ġimproving": 8802,
  "rible": 5278,
  "ĠBrennan": 20734,
  "Ġdue": 2150,
  "Ġ1913": 30878,
  "Ġsimilarly": 11173,
  "oppy": 28214,
  "azed": 14130,
  "stal": 9629,
  "Ġsupers": 25962,
  "Ġtitled": 9240,
  "ancing": 4948,
  "Ġvisiting": 9048,
  "Ġdestroyed": 6821,
  "ĠIg": 27652,
  "ĠFranco": 23629,
  "Ġlikewise": 21466,
  "Ġcloak": 31984,
  "ĠRus": 8070,
  "Ġspark": 7890,
  "Ġmagazines": 15429,
  "lik": 28771,
  "ĠProv": 9005,
  "()": 5396,
  "asks": 6835,
  "Ġinforming": 25481,
  "SP": 4678,
  "Ġobviously": 5516,
  "ĠGaming": 17095,
  "tesque": 31641,
  "uesday": 2610,
  "ervative": 17556,
  "Ġscare": 16477,
  "agged": 14810,
  "Ġavatar": 31499,
  "ĠLakers": 16741,
  "Ġinappropriate": 13957,
  "ĠMolly": 30235,
  "el": 386,
  "Ġ%": 7399,
  "Ġviability": 27303,
  "43": 5832,
  "Ġignores": 22469,
  "Ġfinishes": 19427,
  "|": 92,
  "ĠDial": 27764,
  "ĠBeach": 8175,
  "il": 307,
  "ead": 1276,
  "oirs": 31701,
  "Ġonto": 4289,
  "Ġprisons": 15735,
  "ĠKeen": 27753,
  "Ġdonated": 12994,
  "Ġhomeless": 8810,
  "twitter": 6225,
  "Prof": 14572,
  "Adv": 29101,
  "Ġcrystall": 30570,
  "TOR": 26111,
  "Ġimpacts": 10910,
  "ĠPA": 9311,
  "Ġspends": 14605,
  "RP": 18994,
  "Ġoccurring": 14342,
  "Ġmyriad": 21002,
  "Ġphosph": 19907,
  "Ġbleak": 25308,
  "ĠSep": 2309,
  "Ġmassac": 28342,
  "Ġconvinced": 8185,
  "Ġfantasies": 27973,
  "cop": 26934,
  "Redd": 19649,
  "Ġheroic": 21713,
  "oria": 11716,
  "ĠExplorer": 20456,
  "Ġdive": 14774,
  "Ġdefine": 8261,
  "ĠAmy": 14380,
  "LinkedIn": 30299,
  "inks": 3039,
  "ĠSov": 5948,
  "Ġgrades": 18447,
  "alog": 12951,
  "Ġidentification": 13059,
  "Ġ250": 9779,
  "etic": 5449,
  "sle": 26653,
  "mits": 10596,
  "Ġ>>>": 19729,
  "othy": 14217,
  "Ġafford": 4674,
  "ĠAct": 2699,
  "Ġnewsletters": 11659,
  "zen": 4500,
  "ĠBroadway": 15963,
  "enced": 5258,
  "24": 3183,
  "Working": 26086,
  "ĠArchitect": 17416,
  "Ġlandsc": 21817,
  "ĠRussia": 2725,
  "med": 1085,
  "ĠBlue": 6158,
  "ĠPH": 16165,
  "incinn": 12701,
  "ĠSave": 16201,
  ")|": 15016,
  "Ġraped": 14329,
  "Ġdrivers": 5955,
  "Ġballots": 16027,
  "ĠSant": 5463,
  "Ġcher": 14270,
  "AV": 12820,
  "Ġconting": 15988,
  "olves": 9238,
  "vari": 28614,
  "Ġapps": 5641,
  "heart": 17328,
  "Ġdug": 17058,
  "px": 14592,
  "Ġspikes": 27407,
  "Ġforb": 11882,
  "Ġdeciding": 12816,
  "Ġrate": 2535,
  "Ġdem": 1187,
  "erent": 9742,
  "Ġmut": 5155,
  "Ġinfamous": 14117,
  "ĠWHO": 20002,
  "Ġforgiven": 30293,
  "ĠEither": 15515,
  "ĠStrong": 16753,
  "raction": 19304,
  "Ġvs": 4257,
  "own": 555,
  "Ġarist": 25924,
  "Ġspontaneous": 23891,
  "Ġrestrictive": 23204,
  "¶": 115,
  "ales": 1987,
  "Ġlearning": 4222,
  "Pass": 16995,
  "Ġline": 1529,
  "drug": 28202,
  "ĠPhiladelphia": 7697,
  "Ġdestinations": 19406,
  "Ġcommissioned": 16271,
  "clock": 18486,
  "Ġresearc": 3434,
  "Ġinflation": 8747,
  "Ġmercy": 19691,
  "Altern": 28237,
  "ef": 928,
  "ĠThur": 29601,
  "Ġfoo": 29488,
  "Ġres": 529,
  "ĠPremium": 22083,
  "Ġtrader": 30785,
  "Ġorb": 16509,
  "IF": 6429,
  "ãĤĵ": 29829,
  "Ġrecommended": 8380,
  "ĠMedicare": 11270,
  "ĠPaw": 28877,
  "ĠJungle": 30840,
  "awn": 5016,
  "Ġ225": 26330,
  "Ġchairman": 6683,
  "bourne": 10346,
  "Ġunderground": 10351,
  "Ġhoused": 19894,
  "Ġbackward": 18853,
  "sters": 6951,
  "ĠLars": 27291,
  "mit": 1345,
  "IDE": 18273,
  "ĠMcC": 3287,
  "ophers": 19891,
  "Ġeducators": 26145,
  "ĠMask": 30227,
  "Ġisland": 6244,
  "Ġhemisphere": 28015,
  "Ġfronts": 23649,
  "Ġpasta": 26739,
  "Ġepilepsy": 31880,
  "ĠHig": 16639,
  "Ġsitcom": 26031,
  "Ġdeparted": 22835,
  "ovych": 30271,
  "Ġlasted": 13160,
  "Ġcomplaining": 16180,
  "Ġunint": 16964,
  "Ġnegative": 4404,
  "Ġstirring": 27863,
  "ĠMight": 28630,
  "Ġwatch": 2162,
  "strap": 27176,
  "Ġinterviews": 7949,
  "Ġsounding": 21400,
  "Ġwalked": 6639,
  "Ġmentality": 17089,
  "odus": 23405,
  "ĠTruck": 31942,
  "Ġmonop": 13495,
  "Ġfluids": 30416,
  "Ġresent": 17817,
  "ĠInvalid": 14689,
  "Ġcompar": 4610,
  "come": 3037,
  "Ġattacks": 3198,
  "Ġsur": 892,
  "elcome": 11923,
  "åĪ": 29940,
  "Ġinstances": 10157,
  "Ġbarred": 19689,
  "Const": 17384,
  "-,": 29869,
  "ĠNam": 18838,
  "ĠAad": 28483,
  "Ġproposition": 18135,
  "Ġaltercation": 30580,
  "Ġprovinces": 15557,
  "Phot": 14518,
  "Ġmates": 25259,
  "atinum": 19865,
  "ĠHer": 3008,
  "LY": 13188,
  "68": 6555,
  "Ġfuture": 1710,
  "hab": 5604,
  "ĠHindus": 27324,
  "Ġpersistent": 15280,
  "Ġdesires": 16715,
  "Ġproviding": 4757,
  "ĠNode": 19601,
  "tit": 12224,
  "Ġyelled": 21358,
  "Ġweed": 17825,
  "'m": 1951,
  "Ġflows": 14857,
  "Ġpecul": 20204,
  "Ġpurchases": 12934,
  "space": 14634,
  "Ġsoaring": 25438,
  "Ġactivities": 4628,
  "Ġ54": 9641,
  "Ġsack": 20663,
  "ĠWireless": 25585,
  "Ġpositively": 18202,
  "ĠCrime": 9711,
  "Ġpip": 6564,
  "elsius": 28394,
  "Ġjudicial": 12573,
  "Ġnil": 26065,
  "Ġrefere": 6434,
  "Ġshortly": 7700,
  "Ġinstituted": 30460,
  "onom": 5443,
  "ĠTX": 18391,
  "Finally": 10031,
  "Ġlanguage": 3088,
  "aska": 7753,
  "Ġlibr": 10450,
  "Ġtattoo": 18404,
  "Ġextreme": 3141,
  "ACH": 22249,
  "ĠAlien": 20940,
  "Ġdisease": 4567,
  "Ġcrew": 5019,
  "Ġrecognise": 17883,
  "Ġshall": 5314,
  "Ġ93": 14870,
  "Ġelastic": 30187,
  "Ġpurchased": 8447,
  "ĠCly": 28594,
  "Side": 28124,
  "Ġmurderous": 30019,
  "Ġfleeing": 16714,
  "oubtedly": 14477,
  "gold": 29187,
  "ĠInformation": 8342,
  "iples": 31614,
  "Ġwants": 2918,
  "California": 21964,
  "Ġoffending": 26979,
  "pect": 743,
  "NASA": 22102,
  "ĠBark": 18481,
  "ĠUltimate": 17571,
  "Ġreelection": 25033,
  "Ġpref": 8633,
  "AMA": 24298,
  "Ġcouch": 18587,
  "ĠMaxim": 30990,
  "Ġfract": 12157,
  "Ġaired": 13315,
  "ãĤī": 30681,
  "300": 7258,
  "ĠWilliams": 5541,
  "ĠChampionships": 19396,
  "ĠMonsanto": 21228,
  "Ġquantum": 12242,
  "At": 2642,
  "ĠAurora": 24038,
  "little": 29789,
  "unless": 27390,
  "Ġtangible": 21332,
  "pty": 6251,
  "Ġcombustion": 30331,
  "HAHA": 27669,
  "Ġremote": 6707,
  "Ġsmoked": 21844,
  "Ġevacuation": 22579,
  "Ġmandated": 23621,
  "Ġalbum": 3953,
  "ĠVatican": 15535,
  "Ġdetermines": 20335,
  "rived": 15942,
  "Ġmarker": 20318,
  "Ġrequiring": 10052,
  "ĠForces": 12007,
  "ĠâĢ": 319,
  "Ġlicensed": 13179,
  "ĠDer": 9756,
  "ĠBorn": 20900,
  "ĠSteam": 11422,
  "Ġkindness": 23595,
  "tsky": 30705,
  "cium": 22274,
  "hog": 31898,
  "Ġhighest": 4217,
  "Ġcivil": 2618,
  "Ġmachine": 4372,
  "ĠFrame": 20625,
  "ART": 10595,
  "====": 4335,
  "Ġboycott": 17583,
  "th": 356,
  "Ġdiscredited": 31993,
  "utsche": 23842,
  "Ġcomposite": 24946,
  "ought": 2770,
  "hours": 30965,
  "rained": 13070,
  "ĠDON": 29372,
  "bu": 12074,
  "ĠWarrior": 22020,
  "Small": 24444,
  "Ġlighting": 11793,
  "Ġpolitician": 11151,
  "Ġsen": 2615,
  "Ġhealing": 13878,
  "Group": 20911,
  "Ġhop": 1473,
  "Ġskeleton": 22961,
  "Manager": 25127,
  "Ġmonkey": 22493,
  "Ġleading": 3263,
  "Ġrecruits": 19328,
  "Ġ44": 7792,
  "5": 21,
  "cig": 19938,
  "Sil": 17144,
  "700": 10768,
  "cart": 31095,
  "Ġdefeating": 19892,
  "ĠWinner": 30618,
  "ĠGS": 27879,
  "Japanese": 24441,
  "ĠCopyright": 17302,
  "Ġpermitted": 11954,
  "Ġterrific": 19978,
  "Ġtakeover": 20262,
  "Ġgames": 1567,
  "Ġagent": 5540,
  "ĠWy": 11316,
[...]
